{
  "vocab_size": 8192,
  "min_frequency": 2,
  "special_tokens": {
    "<pad>": 0,
    "<bos>": 1,
    "<eos>": 2,
    "<unk>": 3,
    "<|user|>": 4,
    "<|assistant|>": 5
  },
  "merges": [
    [
      "i",
      "n"
    ],
    [
      "a",
      "t"
    ],
    [
      "r",
      "e"
    ],
    [
      "t",
      "h"
    ],
    [
      "a",
      "n"
    ],
    [
      "o",
      "n"
    ],
    [
      "e",
      "r"
    ],
    [
      "s",
      "t"
    ],
    [
      "o",
      "r"
    ],
    [
      "e",
      "n"
    ],
    [
      "a",
      "l"
    ],
    [
      "i",
      "s"
    ],
    [
      "e",
      "s"
    ],
    [
      "a",
      "r"
    ],
    [
      "i",
      "t"
    ],
    [
      "th",
      "e"
    ],
    [
      "l",
      "e"
    ],
    [
      "o",
      "u"
    ],
    [
      "an",
      "d"
    ],
    [
      "t",
      "o"
    ],
    [
      "in",
      "g"
    ],
    [
      "W",
      "h"
    ],
    [
      "t",
      "i"
    ],
    [
      "d",
      "e"
    ],
    [
      "s",
      "e"
    ],
    [
      "Wh",
      "at"
    ],
    [
      "o",
      "w"
    ],
    [
      "h",
      "e"
    ],
    [
      "m",
      "e"
    ],
    [
      "r",
      "o"
    ],
    [
      "c",
      "o"
    ],
    [
      "c",
      "e"
    ],
    [
      "o",
      "f"
    ],
    [
      "a",
      "s"
    ],
    [
      "i",
      "c"
    ],
    [
      "a",
      "c"
    ],
    [
      "v",
      "e"
    ],
    [
      "u",
      "r"
    ],
    [
      "u",
      "n"
    ],
    [
      "d",
      "o"
    ],
    [
      "f",
      "or"
    ],
    [
      "l",
      "i"
    ],
    [
      "at",
      "e"
    ],
    [
      "m",
      "p"
    ],
    [
      "t",
      "e"
    ],
    [
      "g",
      "e"
    ],
    [
      "a",
      "p"
    ],
    [
      "ti",
      "on"
    ],
    [
      "'",
      "s"
    ],
    [
      "\n",
      " "
    ],
    [
      "s",
      "."
    ],
    [
      "H",
      "ow"
    ],
    [
      "r",
      "i"
    ],
    [
      "i",
      "on"
    ],
    [
      "d",
      "i"
    ],
    [
      "l",
      "o"
    ],
    [
      "l",
      "y"
    ],
    [
      "en",
      "t"
    ],
    [
      "c",
      "on"
    ],
    [
      "s",
      ","
    ],
    [
      "k",
      "e"
    ],
    [
      "c",
      "h"
    ],
    [
      "t",
      "er"
    ],
    [
      "r",
      "a"
    ],
    [
      "b",
      "e"
    ],
    [
      "u",
      "s"
    ],
    [
      "w",
      "i"
    ],
    [
      "p",
      "l"
    ],
    [
      "m",
      "o"
    ],
    [
      "q",
      "u"
    ],
    [
      "What",
      "'s"
    ],
    [
      "ur",
      "n"
    ],
    [
      "re",
      "t"
    ],
    [
      "i",
      "l"
    ],
    [
      "c",
      "tion"
    ],
    [
      "g",
      "h"
    ],
    [
      "it",
      "e"
    ],
    [
      "f",
      "e"
    ],
    [
      "wi",
      "th"
    ],
    [
      "w",
      "h"
    ],
    [
      "T",
      "he"
    ],
    [
      "y",
      "th"
    ],
    [
      "u",
      "l"
    ],
    [
      "f",
      "un"
    ],
    [
      "ou",
      "r"
    ],
    [
      "v",
      "er"
    ],
    [
      "yth",
      "on"
    ],
    [
      "ret",
      "urn"
    ],
    [
      "p",
      "ro"
    ],
    [
      "u",
      "m"
    ],
    [
      "c",
      "t"
    ],
    [
      "a",
      "b"
    ],
    [
      "o",
      "l"
    ],
    [
      "a",
      "d"
    ],
    [
      "fun",
      "ction"
    ],
    [
      "m",
      "a"
    ],
    [
      "w",
      "or"
    ],
    [
      "a",
      "re"
    ],
    [
      "w",
      "e"
    ],
    [
      "s",
      "i"
    ],
    [
      "P",
      "ython"
    ],
    [
      "a",
      "v"
    ],
    [
      "i",
      "r"
    ],
    [
      "ou",
      "t"
    ],
    [
      "at",
      "ion"
    ],
    [
      "o",
      "d"
    ],
    [
      "ou",
      "n"
    ],
    [
      "p",
      "e"
    ],
    [
      "n",
      "e"
    ],
    [
      "c",
      "ap"
    ],
    [
      "i",
      "f"
    ],
    [
      "e",
      "l"
    ],
    [
      "it",
      "al"
    ],
    [
      "re",
      "s"
    ],
    [
      "a",
      "y"
    ],
    [
      "re",
      "ate"
    ],
    [
      "r",
      "ite"
    ],
    [
      "in",
      "t"
    ],
    [
      "i",
      "d"
    ],
    [
      "st",
      "r"
    ],
    [
      "cap",
      "ital"
    ],
    [
      "e",
      "x"
    ],
    [
      "p",
      "er"
    ],
    [
      "p",
      "t"
    ],
    [
      "b",
      "y"
    ],
    [
      ")",
      ":"
    ],
    [
      "re",
      "n"
    ],
    [
      "de",
      "f"
    ],
    [
      "or",
      "t"
    ],
    [
      "co",
      "de"
    ],
    [
      "ro",
      "m"
    ],
    [
      "W",
      "rite"
    ],
    [
      "y",
      "our"
    ],
    [
      "u",
      "t"
    ],
    [
      "gh",
      "t"
    ],
    [
      "s",
      "u"
    ],
    [
      "i",
      "le"
    ],
    [
      "f",
      "rom"
    ],
    [
      "a",
      "m"
    ],
    [
      "e",
      "t"
    ],
    [
      "in",
      "e"
    ],
    [
      "f",
      "fe"
    ],
    [
      "o",
      "t"
    ],
    [
      "d",
      "u"
    ],
    [
      "C",
      "reate"
    ],
    [
      "t",
      "r"
    ],
    [
      ")",
      ";"
    ],
    [
      "a",
      "in"
    ],
    [
      "i",
      "mp"
    ],
    [
      "p",
      "r"
    ],
    [
      "s",
      "h"
    ],
    [
      "u",
      "se"
    ],
    [
      "st",
      "e"
    ],
    [
      "es",
      ","
    ],
    [
      "m",
      "ent"
    ],
    [
      "l",
      "d"
    ],
    [
      "i",
      "ve"
    ],
    [
      "c",
      "ri"
    ],
    [
      "do",
      "es"
    ],
    [
      "li",
      "st"
    ],
    [
      "v",
      "i"
    ],
    [
      "c",
      "an"
    ],
    [
      "co",
      "mp"
    ],
    [
      "th",
      "at"
    ],
    [
      "av",
      "a"
    ],
    [
      "es",
      "."
    ],
    [
      "at",
      "er"
    ],
    [
      "at",
      "h"
    ],
    [
      "cri",
      "pt"
    ],
    [
      "c",
      "he"
    ],
    [
      "(",
      ")"
    ],
    [
      "an",
      "s"
    ],
    [
      "ge",
      "st"
    ],
    [
      "al",
      "l"
    ],
    [
      "on",
      "e"
    ],
    [
      "al",
      "s"
    ],
    [
      "c",
      "a"
    ],
    [
      "s",
      "y"
    ],
    [
      "o",
      "p"
    ],
    [
      "be",
      "t"
    ],
    [
      "J",
      "ava"
    ],
    [
      "m",
      "m"
    ],
    [
      "Wh",
      "y"
    ],
    [
      "e",
      "d"
    ],
    [
      "es",
      "s"
    ],
    [
      "a",
      "k"
    ],
    [
      "b",
      "er"
    ],
    [
      "en",
      "d"
    ],
    [
      "c",
      "k"
    ],
    [
      "o",
      "m"
    ],
    [
      "y",
      "."
    ],
    [
      "Java",
      "S"
    ],
    [
      "JavaS",
      "cript"
    ],
    [
      "g",
      "o"
    ],
    [
      "l",
      "ar"
    ],
    [
      "di",
      "ffe"
    ],
    [
      "diffe",
      "ren"
    ],
    [
      "wor",
      "k"
    ],
    [
      "w",
      "ater"
    ],
    [
      "m",
      "in"
    ],
    [
      ")",
      "{"
    ],
    [
      "s",
      "o"
    ],
    [
      "f",
      "o"
    ],
    [
      "y",
      "ou"
    ],
    [
      "ge",
      "t"
    ],
    [
      ")",
      "."
    ],
    [
      "a",
      "ge"
    ],
    [
      "oun",
      "d"
    ],
    [
      "ar",
      "t"
    ],
    [
      "g",
      "r"
    ],
    [
      "bet",
      "we"
    ],
    [
      "betwe",
      "en"
    ],
    [
      "wh",
      "ile"
    ],
    [
      "ac",
      "t"
    ],
    [
      "u",
      "p"
    ],
    [
      "s",
      "p"
    ],
    [
      "c",
      "i"
    ],
    [
      "ac",
      "h"
    ],
    [
      "er",
      "s"
    ],
    [
      "c",
      "l"
    ],
    [
      "ac",
      "ti"
    ],
    [
      "ac",
      "k"
    ],
    [
      "e",
      "qu"
    ],
    [
      "str",
      "ing"
    ],
    [
      "an",
      "t"
    ],
    [
      "s",
      "?"
    ],
    [
      "e",
      "p"
    ],
    [
      "for",
      "m"
    ],
    [
      "c",
      "re"
    ],
    [
      "p",
      "o"
    ],
    [
      "l",
      "l"
    ],
    [
      "differen",
      "ce"
    ],
    [
      "it",
      "y"
    ],
    [
      "u",
      "re"
    ],
    [
      "u",
      "e"
    ],
    [
      "ar",
      "r"
    ],
    [
      "l",
      "ow"
    ],
    [
      "imp",
      "ort"
    ],
    [
      "ic",
      "al"
    ],
    [
      "c",
      "le"
    ],
    [
      "(",
      "n"
    ],
    [
      "a",
      "ce"
    ],
    [
      "a",
      ","
    ],
    [
      "ou",
      "gh"
    ],
    [
      "le",
      "t"
    ],
    [
      "li",
      "ght"
    ],
    [
      "0",
      "0"
    ],
    [
      "l",
      "en"
    ],
    [
      "b",
      "re"
    ],
    [
      "lar",
      "gest"
    ],
    [
      "a",
      "me"
    ],
    [
      "in",
      "d"
    ],
    [
      "con",
      "st"
    ],
    [
      "con",
      "t"
    ],
    [
      "equ",
      "als"
    ],
    [
      "wh",
      "en"
    ],
    [
      "ab",
      "out"
    ],
    [
      "wor",
      "ld"
    ],
    [
      "a",
      "st"
    ],
    [
      "y",
      "e"
    ],
    [
      "c",
      "ur"
    ],
    [
      "l",
      "st"
    ],
    [
      "ti",
      "me"
    ],
    [
      "b",
      "o"
    ],
    [
      "pr",
      "int"
    ],
    [
      "(",
      "'"
    ],
    [
      "w",
      "as"
    ],
    [
      "ly",
      ","
    ],
    [
      "vi",
      "de"
    ],
    [
      "s",
      "m"
    ],
    [
      "t",
      "w"
    ],
    [
      "a",
      "ke"
    ],
    [
      "g",
      "en"
    ],
    [
      "me",
      "ans"
    ],
    [
      "d",
      "."
    ],
    [
      "f",
      "i"
    ],
    [
      "n",
      "um"
    ],
    [
      "s",
      "pe"
    ],
    [
      "h",
      "i"
    ],
    [
      "b",
      "u"
    ],
    [
      "ar",
      "th"
    ],
    [
      "ab",
      "le"
    ],
    [
      "ke",
      "y"
    ],
    [
      "v",
      "al"
    ],
    [
      "oun",
      "t"
    ],
    [
      "p",
      "h"
    ],
    [
      "d",
      "er"
    ],
    [
      "p",
      "re"
    ],
    [
      "mp",
      "le"
    ],
    [
      "i",
      "m"
    ],
    [
      "te",
      "d"
    ],
    [
      "as",
      "s"
    ],
    [
      "ow",
      "n"
    ],
    [
      "m",
      "an"
    ],
    [
      "th",
      "er"
    ],
    [
      "j",
      "o"
    ],
    [
      "se",
      "t"
    ],
    [
      "z",
      "e"
    ],
    [
      "re",
      "e"
    ],
    [
      "=",
      "="
    ],
    [
      "U",
      "se"
    ],
    [
      "u",
      "st"
    ],
    [
      "ste",
      "m"
    ],
    [
      "a",
      "ir"
    ],
    [
      "I",
      "t"
    ],
    [
      "co",
      "mm"
    ],
    [
      "co",
      "l"
    ],
    [
      "ra",
      "in"
    ],
    [
      "E",
      "arth"
    ],
    [
      "it",
      "s"
    ],
    [
      "tw",
      "o"
    ],
    [
      "an",
      "ge"
    ],
    [
      "h",
      "as"
    ],
    [
      "ic",
      "k"
    ],
    [
      "(",
      "s"
    ],
    [
      "m",
      "es"
    ],
    [
      "al",
      "le"
    ],
    [
      "an",
      "g"
    ],
    [
      "pl",
      "an"
    ],
    [
      "p",
      "ar"
    ],
    [
      "ing",
      "?"
    ],
    [
      "ne",
      "w"
    ],
    [
      "a",
      "."
    ],
    [
      "d",
      "at"
    ],
    [
      "a",
      "ve"
    ],
    [
      "Wh",
      "o"
    ],
    [
      "d",
      "ay"
    ],
    [
      "e",
      "le"
    ],
    [
      "a",
      "se"
    ],
    [
      "ap",
      "p"
    ],
    [
      "y",
      "?"
    ],
    [
      "en",
      "s"
    ],
    [
      "on",
      "g"
    ],
    [
      "go",
      "od"
    ],
    [
      "num",
      "ber"
    ],
    [
      "li",
      "ke"
    ],
    [
      "m",
      "y"
    ],
    [
      "a",
      "g"
    ],
    [
      "sy",
      "stem"
    ],
    [
      "is",
      "e"
    ],
    [
      "th",
      "an"
    ],
    [
      "an",
      "ce"
    ],
    [
      "acti",
      "ce"
    ],
    [
      "a",
      "?"
    ],
    [
      "n",
      "ot"
    ],
    [
      "ing",
      "."
    ],
    [
      "o",
      "ver"
    ],
    [
      "mo",
      "ve"
    ],
    [
      "f",
      "l"
    ],
    [
      "b",
      "r"
    ],
    [
      "d",
      "ic"
    ],
    [
      "th",
      "r"
    ],
    [
      "o",
      "b"
    ],
    [
      "u",
      "te"
    ],
    [
      "g",
      "th"
    ],
    [
      "il",
      "l"
    ],
    [
      "el",
      "l"
    ],
    [
      ")",
      ")"
    ],
    [
      "j",
      "e"
    ],
    [
      "thr",
      "ough"
    ],
    [
      "c",
      "ar"
    ],
    [
      "s",
      "ol"
    ],
    [
      "lo",
      "g"
    ],
    [
      "m",
      "b"
    ],
    [
      "res",
      "s"
    ],
    [
      "wor",
      "d"
    ],
    [
      "g",
      "ra"
    ],
    [
      "n",
      "o"
    ],
    [
      "or",
      "i"
    ],
    [
      "b",
      "ut"
    ],
    [
      "i",
      "p"
    ],
    [
      "x",
      "t"
    ],
    [
      "qu",
      "e"
    ],
    [
      "si",
      "mple"
    ],
    [
      "o",
      "k"
    ],
    [
      "e",
      "f"
    ],
    [
      "di",
      "vide"
    ],
    [
      "G",
      "ive"
    ],
    [
      "e",
      "v"
    ],
    [
      "i",
      "st"
    ],
    [
      "pro",
      "du"
    ],
    [
      "S",
      "t"
    ],
    [
      "che",
      "ck"
    ],
    [
      "1",
      "0"
    ],
    [
      "1",
      "2"
    ],
    [
      "ar",
      "i"
    ],
    [
      "f",
      "act"
    ],
    [
      "pro",
      "te"
    ],
    [
      "'",
      ")"
    ],
    [
      "f",
      "ul"
    ],
    [
      "ar",
      "y"
    ],
    [
      "work",
      "?"
    ],
    [
      "en",
      "er"
    ],
    [
      "re",
      "ad"
    ],
    [
      "c",
      "r"
    ],
    [
      "ter",
      "s"
    ],
    [
      "ul",
      "t"
    ],
    [
      "mo",
      "re"
    ],
    [
      "s",
      "qu"
    ],
    [
      "b",
      "od"
    ],
    [
      "he",
      "al"
    ],
    [
      "ar",
      "n"
    ],
    [
      "w",
      "ay"
    ],
    [
      "ly",
      "."
    ],
    [
      "in",
      "to"
    ],
    [
      "E",
      "x"
    ],
    [
      "d",
      "is"
    ],
    [
      "s",
      "a"
    ],
    [
      "ad",
      "d"
    ],
    [
      "c",
      "al"
    ],
    [
      "at",
      "es"
    ],
    [
      "(",
      "lst"
    ],
    [
      "as",
      "k"
    ],
    [
      "d",
      "r"
    ],
    [
      "g",
      "n"
    ],
    [
      "ti",
      "mes"
    ],
    [
      "alle",
      "st"
    ],
    [
      "squ",
      "are"
    ],
    [
      "s",
      "on"
    ],
    [
      "b",
      "le"
    ],
    [
      "s",
      "er"
    ],
    [
      "re",
      "f"
    ],
    [
      "ma",
      "ke"
    ],
    [
      "T",
      "ell"
    ],
    [
      "g",
      "y"
    ],
    [
      "i",
      "ght"
    ],
    [
      "divide",
      "d"
    ],
    [
      "f",
      "ile"
    ],
    [
      "world",
      "'s"
    ],
    [
      "m",
      "s"
    ],
    [
      "su",
      "b"
    ],
    [
      "t",
      "y"
    ],
    [
      "c",
      "es"
    ],
    [
      "imp",
      "ro"
    ],
    [
      "en",
      "ce"
    ],
    [
      "c",
      "ount"
    ],
    [
      "he",
      "l"
    ],
    [
      "se",
      "l"
    ],
    [
      "ar",
      "d"
    ],
    [
      "c",
      "ti"
    ],
    [
      "as",
      "h"
    ],
    [
      "heal",
      "th"
    ],
    [
      "len",
      "gth"
    ],
    [
      "'",
      ","
    ],
    [
      "pl",
      "ain"
    ],
    [
      "in",
      "k"
    ],
    [
      "I",
      "n"
    ],
    [
      "b",
      "l"
    ],
    [
      "g",
      "er"
    ],
    [
      "re",
      "d"
    ],
    [
      "h",
      "um"
    ],
    [
      "ate",
      "d"
    ],
    [
      "ca",
      "use"
    ],
    [
      "pl",
      "us"
    ],
    [
      "b",
      "lo"
    ],
    [
      "le",
      "arn"
    ],
    [
      "je",
      "ct"
    ],
    [
      "g",
      "re"
    ],
    [
      "1",
      ","
    ],
    [
      "ter",
      "n"
    ],
    [
      "m",
      "at"
    ],
    [
      "pr",
      "actice"
    ],
    [
      "c",
      "y"
    ],
    [
      "ar",
      "ra"
    ],
    [
      ".",
      "."
    ],
    [
      "=",
      ">"
    ],
    [
      "che",
      "m"
    ],
    [
      "f",
      "ir"
    ],
    [
      "is",
      "h"
    ],
    [
      "n",
      "ame"
    ],
    [
      "dic",
      "t"
    ],
    [
      "r",
      "and"
    ],
    [
      "(",
      "a,"
    ],
    [
      "re",
      "st"
    ],
    [
      "d",
      "a"
    ],
    [
      "u",
      "d"
    ],
    [
      "ti",
      "p"
    ],
    [
      "ver",
      "se"
    ],
    [
      "impro",
      "ve"
    ],
    [
      "o",
      "x"
    ],
    [
      "s",
      "um"
    ],
    [
      "ing",
      ","
    ],
    [
      "man",
      "y"
    ],
    [
      "c",
      "reate"
    ],
    [
      "k",
      "n"
    ],
    [
      "ye",
      "ar"
    ],
    [
      "us",
      "ing"
    ],
    [
      "p",
      "ri"
    ],
    [
      "A",
      "n"
    ],
    [
      "le",
      "."
    ],
    [
      "en",
      "ti"
    ],
    [
      "re",
      "g"
    ],
    [
      "e",
      "w"
    ],
    [
      "te",
      "st"
    ],
    [
      "pl",
      "ace"
    ],
    [
      "comp",
      "ute"
    ],
    [
      "r",
      "it"
    ],
    [
      "b",
      "on"
    ],
    [
      "plan",
      "et"
    ],
    [
      "chem",
      "ical"
    ],
    [
      "r",
      "ic"
    ],
    [
      "bre",
      "ak"
    ],
    [
      "at",
      "ive"
    ],
    [
      "at",
      "ing"
    ],
    [
      "e",
      "mp"
    ],
    [
      "ma",
      "x"
    ],
    [
      "]",
      ";"
    ],
    [
      "h",
      "ave"
    ],
    [
      "so",
      "me"
    ],
    [
      "s",
      "k"
    ],
    [
      "l",
      "and"
    ],
    [
      "sel",
      "f"
    ],
    [
      "il",
      "d"
    ],
    [
      "ul",
      "ar"
    ],
    [
      "i",
      "ze"
    ],
    [
      "ch",
      "ar"
    ],
    [
      "[",
      "i"
    ],
    [
      "i",
      "de"
    ],
    [
      "sm",
      "all"
    ],
    [
      "v",
      "ing"
    ],
    [
      "val",
      "ue"
    ],
    [
      "es",
      "?"
    ],
    [
      "ath",
      "."
    ],
    [
      "Ex",
      "plain"
    ],
    [
      "s",
      "al"
    ],
    [
      "t",
      "en"
    ],
    [
      "su",
      "re"
    ],
    [
      "mo",
      "st"
    ],
    [
      "in",
      "s"
    ],
    [
      "rand",
      "om"
    ],
    [
      "(",
      "x"
    ],
    [
      "fo",
      "od"
    ],
    [
      "ou",
      "s"
    ],
    [
      "in",
      "ter"
    ],
    [
      "re",
      "move"
    ],
    [
      "ex",
      "p"
    ],
    [
      "p",
      "ython"
    ],
    [
      "re",
      "l"
    ],
    [
      "-",
      "1"
    ],
    [
      "he",
      "re"
    ],
    [
      "2",
      ","
    ],
    [
      "h",
      "y"
    ],
    [
      "ve",
      "lo"
    ],
    [
      "t",
      "ri"
    ],
    [
      "S",
      "Q"
    ],
    [
      "SQ",
      "L"
    ],
    [
      "po",
      "s"
    ],
    [
      "o",
      "ther"
    ],
    [
      "or",
      "s"
    ],
    [
      "al",
      "ly"
    ],
    [
      "fir",
      "st"
    ],
    [
      "or",
      "y"
    ],
    [
      "r",
      "u"
    ],
    [
      "el",
      "se"
    ],
    [
      "=",
      "["
    ],
    [
      "st",
      "and"
    ],
    [
      "it",
      "er"
    ],
    [
      "o",
      "c"
    ],
    [
      "s",
      "un"
    ],
    [
      "ac",
      "tion"
    ],
    [
      "a",
      "u"
    ],
    [
      "p",
      "p"
    ],
    [
      "re",
      "du"
    ],
    [
      "i",
      "ce"
    ],
    [
      "list",
      "."
    ],
    [
      "L",
      "E"
    ],
    [
      "ve",
      "l"
    ],
    [
      "the",
      "ir"
    ],
    [
      "health",
      "y"
    ],
    [
      "l",
      "ine"
    ],
    [
      "o",
      "s"
    ],
    [
      "cti",
      "ve"
    ],
    [
      "ch",
      "o"
    ],
    [
      "r",
      "ange"
    ],
    [
      "in",
      "te"
    ],
    [
      "ver",
      "t"
    ],
    [
      "f",
      "ind"
    ],
    [
      "ener",
      "gy"
    ],
    [
      "bu",
      "ild"
    ],
    [
      "p",
      "res"
    ],
    [
      "bod",
      "y"
    ],
    [
      "i",
      "a"
    ],
    [
      "1",
      "5"
    ],
    [
      "c",
      "ess"
    ],
    [
      "h",
      "o"
    ],
    [
      "ly",
      "?"
    ],
    [
      "c",
      "ent"
    ],
    [
      "T",
      "r"
    ],
    [
      "tr",
      "y"
    ],
    [
      "ow",
      "s"
    ],
    [
      "out",
      "."
    ],
    [
      "(",
      "p"
    ],
    [
      "<",
      "/"
    ],
    [
      "wh",
      "at"
    ],
    [
      "dat",
      "a"
    ],
    [
      "it",
      "ion"
    ],
    [
      "ma",
      "in"
    ],
    [
      "in",
      "es"
    ],
    [
      "d",
      "es"
    ],
    [
      "v",
      "it"
    ],
    [
      "or",
      "g"
    ],
    [
      "f",
      "il"
    ],
    [
      "string",
      "."
    ],
    [
      "hum",
      "an"
    ],
    [
      "m",
      "il"
    ],
    [
      "a",
      "f"
    ],
    [
      "te",
      "xt"
    ],
    [
      "b",
      "ack"
    ],
    [
      "ele",
      "ct"
    ],
    [
      "low",
      "er"
    ],
    [
      "hel",
      "p"
    ],
    [
      "us",
      "es"
    ],
    [
      "l",
      "es"
    ],
    [
      "ma",
      "k"
    ],
    [
      "sm",
      "allest"
    ],
    [
      ")",
      ","
    ],
    [
      "p",
      "ow"
    ],
    [
      "b",
      "i"
    ],
    [
      "ti",
      "c"
    ],
    [
      "m",
      "er"
    ],
    [
      "st",
      "art"
    ],
    [
      "the",
      "m"
    ],
    [
      "te",
      "mp"
    ],
    [
      "(",
      "a"
    ],
    [
      "'",
      "."
    ],
    [
      "t",
      "ra"
    ],
    [
      "m",
      "ul"
    ],
    [
      "con",
      "d"
    ],
    [
      "de",
      "velo"
    ],
    [
      "an",
      "im"
    ],
    [
      "l",
      "ess"
    ],
    [
      "a",
      "ste"
    ],
    [
      "d",
      "ate"
    ],
    [
      "R",
      "O"
    ],
    [
      "=",
      "0"
    ],
    [
      "jo",
      "ke"
    ],
    [
      "1",
      "4"
    ],
    [
      "org",
      "an"
    ],
    [
      "H",
      "T"
    ],
    [
      "me",
      "m"
    ],
    [
      "at",
      "ur"
    ],
    [
      "qu",
      "ick"
    ],
    [
      "ol",
      "d"
    ],
    [
      "er",
      "t"
    ],
    [
      "o",
      "se"
    ],
    [
      "o",
      "id"
    ],
    [
      "reg",
      "ular"
    ],
    [
      "i",
      "al"
    ],
    [
      "with",
      "out"
    ],
    [
      "le",
      "ep"
    ],
    [
      "y",
      "s"
    ],
    [
      "p",
      "i"
    ],
    [
      "kn",
      "own"
    ],
    [
      "g",
      "ar"
    ],
    [
      "0",
      "."
    ],
    [
      "t",
      "ake"
    ],
    [
      "jo",
      "in"
    ],
    [
      "(",
      "arr"
    ],
    [
      "print",
      "("
    ],
    [
      "h",
      "t"
    ],
    [
      "g",
      "i"
    ],
    [
      "re",
      "ct"
    ],
    [
      "n",
      "er"
    ],
    [
      "pl",
      "ant"
    ],
    [
      "v",
      "en"
    ],
    [
      "ce",
      "an"
    ],
    [
      "ce",
      "ll"
    ],
    [
      "anim",
      "al"
    ],
    [
      "th",
      "en"
    ],
    [
      "s",
      "n"
    ],
    [
      "ke",
      "ep"
    ],
    [
      "m",
      "on"
    ],
    [
      "m",
      "us"
    ],
    [
      "[",
      "k"
    ],
    [
      "for",
      "("
    ],
    [
      "s",
      "leep"
    ],
    [
      "p",
      "at"
    ],
    [
      "ang",
      "u"
    ],
    [
      "w",
      "rite"
    ],
    [
      "1",
      "8"
    ],
    [
      "ob",
      "ject"
    ],
    [
      "s",
      ":"
    ],
    [
      "cle",
      "an"
    ],
    [
      "ch",
      "ange"
    ],
    [
      "S",
      "E"
    ],
    [
      "f",
      "ic"
    ],
    [
      "que",
      "st"
    ],
    [
      "gr",
      "ow"
    ],
    [
      "ic",
      "h"
    ],
    [
      "con",
      "si"
    ],
    [
      "sy",
      "n"
    ],
    [
      "ar",
      "k"
    ],
    [
      "ele",
      "ment"
    ],
    [
      "me",
      "t"
    ],
    [
      "blo",
      "od"
    ],
    [
      "b",
      "ir"
    ],
    [
      "c",
      "or"
    ],
    [
      "fo",
      "c"
    ],
    [
      "cur",
      "ren"
    ],
    [
      "c",
      "ise"
    ],
    [
      "cle",
      "ar"
    ],
    [
      "vi",
      "ew"
    ],
    [
      "l",
      "ong"
    ],
    [
      "er",
      "y"
    ],
    [
      "z",
      "ip"
    ],
    [
      "M",
      "ath."
    ],
    [
      ";",
      "i"
    ],
    [
      "e",
      "ach"
    ],
    [
      "if",
      "ic"
    ],
    [
      "angu",
      "age"
    ],
    [
      "c",
      "ul"
    ],
    [
      "th",
      "es"
    ],
    [
      "a",
      "w"
    ],
    [
      "ation",
      "."
    ],
    [
      "fe",
      "el"
    ],
    [
      "prote",
      "in"
    ],
    [
      "C",
      "T"
    ],
    [
      "F",
      "RO"
    ],
    [
      "FRO",
      "M"
    ],
    [
      "T",
      "h"
    ],
    [
      "w",
      "rit"
    ],
    [
      "sol",
      "ar"
    ],
    [
      "p",
      "art"
    ],
    [
      "on",
      "gest"
    ],
    [
      "o",
      "re"
    ],
    [
      "f",
      "er"
    ],
    [
      "a",
      "il"
    ],
    [
      "tr",
      "ans"
    ],
    [
      "s",
      "or"
    ],
    [
      "redu",
      "ce"
    ],
    [
      "2",
      "5"
    ],
    [
      "b",
      "rain"
    ],
    [
      "ation",
      ","
    ],
    [
      "re",
      "verse"
    ],
    [
      "un",
      "der"
    ],
    [
      "t",
      "ask"
    ],
    [
      "per",
      "son"
    ],
    [
      "ou",
      "ld"
    ],
    [
      "un",
      "i"
    ],
    [
      "M",
      "L"
    ],
    [
      "sy",
      "mb"
    ],
    [
      "st",
      "ar"
    ],
    [
      "ver",
      "s"
    ],
    [
      "te",
      "ct"
    ],
    [
      "fo",
      "re"
    ],
    [
      "e",
      "ffe"
    ],
    [
      "b",
      "ase"
    ],
    [
      "v",
      "is"
    ],
    [
      "str",
      "u"
    ],
    [
      "[i",
      "]"
    ],
    [
      "H",
      "el"
    ],
    [
      "st",
      "or"
    ],
    [
      "ing",
      "s"
    ],
    [
      "n",
      "atur"
    ],
    [
      "e",
      "at"
    ],
    [
      "mul",
      "tip"
    ],
    [
      "l",
      "anguage"
    ],
    [
      "p",
      "ain"
    ],
    [
      "symb",
      "ol"
    ],
    [
      "m",
      "."
    ],
    [
      "o",
      "g"
    ],
    [
      "gen",
      "er"
    ],
    [
      "le",
      "ct"
    ],
    [
      "c",
      "lo"
    ],
    [
      "v",
      "id"
    ],
    [
      "cont",
      "ain"
    ],
    [
      "+",
      "+"
    ],
    [
      "pro",
      "gra"
    ],
    [
      "h",
      "ot"
    ],
    [
      "ce",
      "pt"
    ],
    [
      "v",
      "es"
    ],
    [
      "1",
      "3"
    ],
    [
      "per",
      "i"
    ],
    [
      "2",
      "0"
    ],
    [
      "b",
      "al"
    ],
    [
      "comm",
      "on"
    ],
    [
      "be",
      "fore"
    ],
    [
      "f",
      "ast"
    ],
    [
      "he",
      "ad"
    ],
    [
      "d",
      "own"
    ],
    [
      "su",
      "pp"
    ],
    [
      "file",
      "."
    ],
    [
      "s",
      "q"
    ],
    [
      "mo",
      "tion"
    ],
    [
      "con",
      "vert"
    ],
    [
      "ex",
      "er"
    ],
    [
      "int",
      "ain"
    ],
    [
      "me",
      "th"
    ],
    [
      "meth",
      "od"
    ],
    [
      "st",
      "ay"
    ],
    [
      "m",
      "it"
    ],
    [
      "th",
      "ree"
    ],
    [
      "d",
      "?"
    ],
    [
      "to",
      "p"
    ],
    [
      "av",
      "oid"
    ],
    [
      "p",
      "ass"
    ],
    [
      "he",
      "at"
    ],
    [
      "k",
      ","
    ],
    [
      "[",
      "]"
    ],
    [
      "app",
      "end"
    ],
    [
      "(s",
      "):"
    ],
    [
      "SE",
      "LE"
    ],
    [
      "SELE",
      "CT"
    ],
    [
      "Earth",
      "'s"
    ],
    [
      "i",
      "e"
    ],
    [
      "1",
      "9"
    ],
    [
      "af",
      "ter"
    ],
    [
      "at",
      "ure"
    ],
    [
      "1",
      "00"
    ],
    [
      "ul",
      "l"
    ],
    [
      "ir",
      "on"
    ],
    [
      "C",
      "h"
    ],
    [
      "h",
      "ab"
    ],
    [
      "g",
      "g"
    ],
    [
      "c",
      "at"
    ],
    [
      "si",
      "gn"
    ],
    [
      "1",
      "."
    ],
    [
      "e",
      "ar"
    ],
    [
      "ne",
      "t"
    ],
    [
      "ty",
      "pe"
    ],
    [
      "<",
      "="
    ],
    [
      "min",
      "us"
    ],
    [
      "Hel",
      "lo"
    ],
    [
      "e",
      "ver"
    ],
    [
      "ma",
      "intain"
    ],
    [
      "en",
      "g"
    ],
    [
      "n",
      "ing"
    ],
    [
      "s",
      "our"
    ],
    [
      "g",
      "as"
    ],
    [
      "o",
      "cean"
    ],
    [
      "wh",
      "o"
    ],
    [
      "ev",
      "en"
    ],
    [
      "c",
      "oun"
    ],
    [
      "re",
      "le"
    ],
    [
      "develo",
      "p"
    ],
    [
      "use",
      "d"
    ],
    [
      "sa",
      "fe"
    ],
    [
      "R",
      "e"
    ],
    [
      "p",
      "al"
    ],
    [
      "HT",
      "ML"
    ],
    [
      "arra",
      "y"
    ],
    [
      "]",
      ")"
    ],
    [
      "[",
      "0"
    ],
    [
      "arr",
      "."
    ],
    [
      "Python",
      "?"
    ],
    [
      "pro",
      "cess"
    ],
    [
      "u",
      "al"
    ],
    [
      "h",
      "and"
    ],
    [
      "thes",
      "is"
    ],
    [
      "l",
      "ongest"
    ],
    [
      "str",
      "ong"
    ],
    [
      "S",
      "h"
    ],
    [
      "pow",
      "er"
    ],
    [
      "d",
      ","
    ],
    [
      "ation",
      "al"
    ],
    [
      "v",
      "ol"
    ],
    [
      "d",
      "ur"
    ],
    [
      "t",
      "on"
    ],
    [
      "C",
      "o"
    ],
    [
      "m",
      "or"
    ],
    [
      "ar",
      "m"
    ],
    [
      "ation",
      "?"
    ],
    [
      "co",
      "m"
    ],
    [
      "j",
      "ust"
    ],
    [
      "key",
      "s"
    ],
    [
      "emp",
      "lo"
    ],
    [
      "S",
      "O"
    ],
    [
      "par",
      "se"
    ],
    [
      "B",
      "ash"
    ],
    [
      "y",
      ","
    ],
    [
      "comm",
      "un"
    ],
    [
      "p",
      "tion"
    ],
    [
      "pat",
      "tern"
    ],
    [
      "me",
      "an"
    ],
    [
      "s",
      "ur"
    ],
    [
      "cont",
      "in"
    ],
    [
      "po",
      "int"
    ],
    [
      "ite",
      "d"
    ],
    [
      "op",
      "en"
    ],
    [
      "d",
      "en"
    ],
    [
      "f",
      "lo"
    ],
    [
      "u",
      "tion"
    ],
    [
      "de",
      "tect"
    ],
    [
      "fact",
      "ori"
    ],
    [
      "factori",
      "al"
    ],
    [
      "n",
      "ow"
    ],
    [
      "word",
      "s"
    ],
    [
      "di",
      "g"
    ],
    [
      "ri",
      "p"
    ],
    [
      "b",
      ")"
    ],
    [
      "(",
      "r"
    ],
    [
      "S",
      "tr"
    ],
    [
      "..",
      "."
    ],
    [
      "qu",
      "ery"
    ],
    [
      "E",
      "R"
    ],
    [
      "con",
      "so"
    ],
    [
      "g",
      "l"
    ],
    [
      "av",
      "es"
    ],
    [
      "min",
      "ut"
    ],
    [
      "di",
      "st"
    ],
    [
      "ent",
      "s"
    ],
    [
      "g",
      "ent"
    ],
    [
      "m",
      "i"
    ],
    [
      "n",
      "ut"
    ],
    [
      "co",
      "ld"
    ],
    [
      "st",
      "ud"
    ],
    [
      "acti",
      "ve"
    ],
    [
      "be",
      "cause"
    ],
    [
      "f",
      "at"
    ],
    [
      "(n",
      "):"
    ],
    [
      "m",
      "l"
    ],
    [
      "conso",
      "le."
    ],
    [
      "B",
      "e"
    ],
    [
      "ri",
      "ght"
    ],
    [
      "u",
      "de"
    ],
    [
      "ath",
      "er"
    ],
    [
      "it",
      "."
    ],
    [
      "d",
      "ro"
    ],
    [
      "us",
      "h"
    ],
    [
      "sp",
      "ace"
    ],
    [
      "pl",
      "ay"
    ],
    [
      "E",
      "n"
    ],
    [
      "o",
      "th"
    ],
    [
      "de",
      "ep"
    ],
    [
      "i",
      "mm"
    ],
    [
      "p",
      "are"
    ],
    [
      "min",
      "d"
    ],
    [
      "ca",
      "se"
    ],
    [
      "sh",
      "ow"
    ],
    [
      "ac",
      "ter"
    ],
    [
      "ar",
      "g"
    ],
    [
      "cre",
      "ating"
    ],
    [
      "s",
      "pl"
    ],
    [
      "al",
      "se"
    ],
    [
      "j",
      "son"
    ],
    [
      "[k",
      "]"
    ],
    [
      "sq",
      "l"
    ],
    [
      "=",
      "\""
    ],
    [
      "spe",
      "c"
    ],
    [
      "the",
      "y"
    ],
    [
      "natur",
      "al"
    ],
    [
      "h",
      "our"
    ],
    [
      "da",
      "i"
    ],
    [
      "water",
      ","
    ],
    [
      "cl",
      "ass"
    ],
    [
      "al",
      "i"
    ],
    [
      "al",
      "e"
    ],
    [
      "P",
      "l"
    ],
    [
      "e",
      "k"
    ],
    [
      "an",
      "ti"
    ],
    [
      "mo",
      "on"
    ],
    [
      "bre",
      "ath"
    ],
    [
      "re",
      "pe"
    ],
    [
      "val",
      "u"
    ],
    [
      "S",
      "et"
    ],
    [
      "stru",
      "ct"
    ],
    [
      "ite",
      "ms"
    ],
    [
      "bet",
      "ter"
    ],
    [
      "s",
      "ort"
    ],
    [
      "re",
      "place"
    ],
    [
      "P",
      "r"
    ],
    [
      "as",
      "y"
    ],
    [
      "t",
      "al"
    ],
    [
      "emplo",
      "ye"
    ],
    [
      "pro",
      "vid"
    ],
    [
      "m",
      "ap"
    ],
    [
      "J",
      "SO"
    ],
    [
      "JSO",
      "N"
    ],
    [
      "s",
      ")"
    ],
    [
      "+",
      "="
    ],
    [
      "a",
      "ult"
    ],
    [
      "'",
      ");"
    ],
    [
      "spec",
      "ific"
    ],
    [
      "'",
      "t"
    ],
    [
      "ph",
      "o"
    ],
    [
      "a",
      "x"
    ],
    [
      "1",
      "1"
    ],
    [
      "commun",
      "ic"
    ],
    [
      "di",
      "rect"
    ],
    [
      "C",
      "an"
    ],
    [
      "spe",
      "ed"
    ],
    [
      "D",
      "ef"
    ],
    [
      "Def",
      "ine"
    ],
    [
      "syn",
      "thesis"
    ],
    [
      "hab",
      "it"
    ],
    [
      "o",
      "st"
    ],
    [
      "de",
      "st"
    ],
    [
      "dur",
      "ing"
    ],
    [
      "h",
      "ol"
    ],
    [
      "t",
      "."
    ],
    [
      "f",
      "ru"
    ],
    [
      "sh",
      "ort"
    ],
    [
      "f",
      "y"
    ],
    [
      "exer",
      "cise"
    ],
    [
      "fil",
      "ter"
    ],
    [
      "fi",
      "x"
    ],
    [
      "spl",
      "it"
    ],
    [
      "N",
      "one"
    ],
    [
      "Str",
      "ing"
    ],
    [
      "arra",
      "y."
    ],
    [
      "ht",
      "ml"
    ],
    [
      "pl",
      "ic"
    ],
    [
      "joke",
      "."
    ],
    [
      "quest",
      "ion"
    ],
    [
      "s",
      "s"
    ],
    [
      "mak",
      "ing"
    ],
    [
      "ox",
      "y"
    ],
    [
      "1",
      "6"
    ],
    [
      "w",
      "here"
    ],
    [
      "li",
      "fe"
    ],
    [
      "col",
      "or"
    ],
    [
      "fe",
      "et"
    ],
    [
      "5",
      "."
    ],
    [
      "v",
      "ity"
    ],
    [
      "o",
      "."
    ],
    [
      "to",
      "synthesis"
    ],
    [
      "ro",
      "ot"
    ],
    [
      "th",
      "ing"
    ],
    [
      "S",
      "ou"
    ],
    [
      "an",
      "y"
    ],
    [
      "n",
      "am"
    ],
    [
      "ro",
      "t"
    ],
    [
      "0",
      ","
    ],
    [
      "sk",
      "ill"
    ],
    [
      "su",
      "gar"
    ],
    [
      "s",
      "ound"
    ],
    [
      "foc",
      "us"
    ],
    [
      "y",
      "m"
    ],
    [
      "gr",
      "ou"
    ],
    [
      "p",
      "air"
    ],
    [
      "f",
      "aste"
    ],
    [
      "faste",
      "st"
    ],
    [
      "range",
      "("
    ],
    [
      "[",
      "j"
    ],
    [
      "0",
      ")"
    ],
    [
      "p",
      "op"
    ],
    [
      "p",
      "on"
    ],
    [
      "re",
      "qu"
    ],
    [
      "ro",
      "te"
    ],
    [
      "wh",
      "ich"
    ],
    [
      "ca",
      "uses"
    ],
    [
      "oc",
      "cur"
    ],
    [
      "he",
      "art"
    ],
    [
      "C",
      "on"
    ],
    [
      "se",
      "cond"
    ],
    [
      "t",
      "allest"
    ],
    [
      "v",
      "ent"
    ],
    [
      "t",
      "able"
    ],
    [
      "p",
      "ot"
    ],
    [
      "w",
      "ind"
    ],
    [
      "co",
      "ver"
    ],
    [
      "s",
      "che"
    ],
    [
      "s",
      "cre"
    ],
    [
      "Tr",
      "y"
    ],
    [
      "t",
      ","
    ],
    [
      "ne",
      "ed"
    ],
    [
      "le",
      "ction"
    ],
    [
      "me",
      "as"
    ],
    [
      "or",
      "der"
    ],
    [
      "s",
      "ens"
    ],
    [
      "tr",
      "act"
    ],
    [
      "in",
      "cl"
    ],
    [
      "p",
      "ut"
    ],
    [
      "blo",
      "ck"
    ],
    [
      "c",
      "li"
    ],
    [
      "ation",
      "s"
    ],
    [
      "d",
      "s"
    ],
    [
      "grou",
      "p"
    ],
    [
      "l",
      "ay"
    ],
    [
      "provid",
      "es"
    ],
    [
      "pro",
      "vide"
    ],
    [
      "temp",
      "er"
    ],
    [
      "def",
      "ault"
    ],
    [
      "'",
      ":"
    ],
    [
      "console.",
      "log"
    ],
    [
      "employe",
      "es"
    ],
    [
      "c",
      "is"
    ],
    [
      "4",
      "."
    ],
    [
      "ment",
      "."
    ],
    [
      "g",
      "u"
    ],
    [
      "e",
      "motion"
    ],
    [
      "o",
      "me"
    ],
    [
      "de",
      "d"
    ],
    [
      "w",
      "rote"
    ],
    [
      "hy",
      "dr"
    ],
    [
      "bal",
      "ance"
    ],
    [
      "me",
      "d"
    ],
    [
      "differen",
      "t"
    ],
    [
      "le",
      "vel"
    ],
    [
      "f",
      "ri"
    ],
    [
      "le",
      "x"
    ],
    [
      "n",
      "ight"
    ],
    [
      "v",
      "ari"
    ],
    [
      "ac",
      "id"
    ],
    [
      "sub",
      "st"
    ],
    [
      "U",
      "n"
    ],
    [
      "hi",
      "gh"
    ],
    [
      "m",
      "ic"
    ],
    [
      "si",
      "de"
    ],
    [
      "te",
      "ch"
    ],
    [
      "b",
      "ri"
    ],
    [
      "ma",
      "il"
    ],
    [
      "n",
      "ess"
    ],
    [
      "o",
      "s."
    ],
    [
      "ct",
      "s"
    ],
    [
      "us",
      "ion"
    ],
    [
      "b",
      "):"
    ],
    [
      "[0",
      "]"
    ],
    [
      "(",
      ");"
    ],
    [
      "}",
      ";"
    ],
    [
      "if",
      "("
    ],
    [
      "comm",
      "and"
    ],
    [
      "pro",
      "ble"
    ],
    [
      "oxy",
      "gen"
    ],
    [
      "car",
      "bon"
    ],
    [
      "3",
      "."
    ],
    [
      "gr",
      "ound"
    ],
    [
      "f",
      "t"
    ],
    [
      "L",
      "e"
    ],
    [
      "si",
      "ve"
    ],
    [
      "ak",
      "es"
    ],
    [
      "c",
      "alle"
    ],
    [
      "t",
      "ar"
    ],
    [
      "m",
      "is"
    ],
    [
      "sour",
      "ce"
    ],
    [
      "r",
      "on"
    ],
    [
      "du",
      "le"
    ],
    [
      "ret",
      "ch"
    ],
    [
      "ste",
      "p"
    ],
    [
      "in",
      "cre"
    ],
    [
      "mo",
      "le"
    ],
    [
      "effe",
      "ct"
    ],
    [
      "il",
      "ity"
    ],
    [
      "2,",
      "3"
    ],
    [
      "at",
      "or"
    ],
    [
      "ma",
      "g"
    ],
    [
      "l",
      "ast"
    ],
    [
      "ak",
      "ing"
    ],
    [
      "ite",
      "m"
    ],
    [
      "ever",
      "y"
    ],
    [
      "w",
      "in"
    ],
    [
      "Pr",
      "actice"
    ],
    [
      "fi",
      "ber"
    ],
    [
      "co",
      "me"
    ],
    [
      "op",
      "tion"
    ],
    [
      "c",
      "ust"
    ],
    [
      "cust",
      "om"
    ],
    [
      "st",
      "rip"
    ],
    [
      "(lst",
      ","
    ],
    [
      "x",
      "x"
    ],
    [
      "d",
      "on"
    ],
    [
      "A",
      "r"
    ],
    [
      "ic",
      "es"
    ],
    [
      "in",
      "form"
    ],
    [
      "h",
      "ow"
    ],
    [
      "St",
      "art"
    ],
    [
      "W",
      "or"
    ],
    [
      "a",
      "h"
    ],
    [
      "w",
      "ard"
    ],
    [
      "9",
      "."
    ],
    [
      "calle",
      "d"
    ],
    [
      "at",
      "i"
    ],
    [
      "at",
      "ic"
    ],
    [
      "s",
      "mo"
    ],
    [
      "b",
      "."
    ],
    [
      "b",
      "s"
    ],
    [
      "n",
      "i"
    ],
    [
      "consi",
      "st"
    ],
    [
      "produ",
      "ce"
    ],
    [
      "u",
      "me"
    ],
    [
      "e",
      "ye"
    ],
    [
      "en",
      "c"
    ],
    [
      "struct",
      "ure"
    ],
    [
      "it",
      "i"
    ],
    [
      "e",
      "mail"
    ],
    [
      "r",
      "un"
    ],
    [
      "supp",
      "ort"
    ],
    [
      "be",
      "st"
    ],
    [
      "al",
      "tern"
    ],
    [
      "f",
      "ol"
    ],
    [
      "j",
      "av"
    ],
    [
      "form",
      "at"
    ],
    [
      "res",
      "pon"
    ],
    [
      "vit",
      "am"
    ],
    [
      "ex",
      "t"
    ],
    [
      "cr",
      "y"
    ],
    [
      "f",
      "ace"
    ],
    [
      "C",
      "S"
    ],
    [
      "fact",
      "."
    ],
    [
      "number",
      "s."
    ],
    [
      "()",
      ")"
    ],
    [
      "sor",
      "ted"
    ],
    [
      "(lst",
      "):"
    ],
    [
      "is",
      "."
    ],
    [
      "o",
      "il"
    ],
    [
      "fri",
      "end"
    ],
    [
      "A",
      "u"
    ],
    [
      "i",
      "et"
    ],
    [
      "bo",
      "ok"
    ],
    [
      "The",
      "re"
    ],
    [
      "in",
      "ci"
    ],
    [
      "en",
      "v"
    ],
    [
      "t",
      "urn"
    ],
    [
      "sp",
      "here"
    ],
    [
      "ph",
      "one"
    ],
    [
      "world",
      "?"
    ],
    [
      "e",
      "."
    ],
    [
      "coun",
      "try"
    ],
    [
      "ro",
      "l"
    ],
    [
      "r",
      "ap"
    ],
    [
      "re",
      "ach"
    ],
    [
      "stud",
      "y"
    ],
    [
      "time",
      "."
    ],
    [
      "t",
      "in"
    ],
    [
      "u",
      "b"
    ],
    [
      "your",
      "self"
    ],
    [
      "if",
      "y"
    ],
    [
      "pro",
      "g"
    ],
    [
      "M",
      "ake"
    ],
    [
      "list",
      "en"
    ],
    [
      "me",
      "l"
    ],
    [
      "ap",
      "h"
    ],
    [
      "i",
      "gh"
    ],
    [
      "p",
      "ort"
    ],
    [
      "to",
      "tal"
    ],
    [
      "contain",
      "s"
    ],
    [
      "h",
      "er"
    ],
    [
      "b",
      "acter"
    ],
    [
      "m",
      "id"
    ],
    [
      "return",
      "s"
    ],
    [
      "+",
      "1"
    ],
    [
      "(p",
      "ath"
    ],
    [
      "2",
      "00"
    ],
    [
      "inte",
      "rest"
    ],
    [
      "de",
      "gre"
    ],
    [
      "tra",
      "vel"
    ],
    [
      "it",
      "ive"
    ],
    [
      "ref",
      "ers"
    ],
    [
      "me",
      "ters"
    ],
    [
      "sh",
      "ould"
    ],
    [
      "le",
      "d"
    ],
    [
      "multip",
      "le"
    ],
    [
      "progra",
      "mm"
    ],
    [
      "pres",
      "sure"
    ],
    [
      "at",
      "he"
    ],
    [
      "M",
      "o"
    ],
    [
      "g",
      "al"
    ],
    [
      "2",
      "."
    ],
    [
      "ch",
      "ang"
    ],
    [
      "st",
      "ate"
    ],
    [
      "f",
      "ree"
    ],
    [
      "pe",
      "d"
    ],
    [
      "m",
      "?"
    ],
    [
      "l",
      "in"
    ],
    [
      "er",
      "."
    ],
    [
      "Sou",
      "th"
    ],
    [
      "at",
      "ch"
    ],
    [
      "b",
      "ul"
    ],
    [
      "st",
      "retch"
    ],
    [
      "ce",
      "l"
    ],
    [
      "4",
      ","
    ],
    [
      "on",
      "ym"
    ],
    [
      "s",
      "ent"
    ],
    [
      "lo",
      "c"
    ],
    [
      "er",
      "?"
    ],
    [
      "spe",
      "ak"
    ],
    [
      "n",
      "es"
    ],
    [
      "in",
      "de"
    ],
    [
      "ste",
      "d"
    ],
    [
      "p",
      "ush"
    ],
    [
      "tr",
      "ack"
    ],
    [
      "temper",
      "ature"
    ],
    [
      "(",
      "1"
    ],
    [
      "i",
      ","
    ],
    [
      "max",
      "("
    ],
    [
      "C",
      "oun"
    ],
    [
      "Coun",
      "ter"
    ],
    [
      "(",
      "["
    ],
    [
      "=",
      "{"
    ],
    [
      ">",
      "<"
    ],
    [
      "t",
      "xt"
    ],
    [
      "asy",
      "n"
    ],
    [
      "jav",
      "as"
    ],
    [
      "javas",
      "cript"
    ],
    [
      "m",
      "ach"
    ],
    [
      "con",
      "ne"
    ],
    [
      "pho",
      "tosynthesis"
    ],
    [
      "d",
      "ing"
    ],
    [
      "a",
      "i"
    ],
    [
      "ca",
      "using"
    ],
    [
      "system",
      "?"
    ],
    [
      "system",
      "."
    ],
    [
      "plant",
      "s"
    ],
    [
      "8",
      "."
    ],
    [
      "Earth",
      "?"
    ],
    [
      "b",
      "ound"
    ],
    [
      "bl",
      "ue"
    ],
    [
      "al",
      "y"
    ],
    [
      "e",
      "th"
    ],
    [
      "at",
      "mo"
    ],
    [
      "Un",
      "ited"
    ],
    [
      "re",
      "at"
    ],
    [
      "spe",
      "ci"
    ],
    [
      "du",
      "e"
    ],
    [
      "co",
      "mes"
    ],
    [
      "er",
      ","
    ],
    [
      "u",
      "mp"
    ],
    [
      "co",
      "p"
    ],
    [
      "co",
      "ol"
    ],
    [
      "me",
      "al"
    ],
    [
      "st",
      "ore"
    ],
    [
      "ti",
      "l"
    ],
    [
      "c",
      "ut"
    ],
    [
      "ra",
      "di"
    ],
    [
      "ne",
      "e"
    ],
    [
      "L",
      "ist"
    ],
    [
      "re",
      "view"
    ],
    [
      "f",
      "low"
    ],
    [
      "l",
      "ate"
    ],
    [
      "u",
      "ally"
    ],
    [
      "res",
      "ult"
    ],
    [
      "r",
      "or"
    ],
    [
      "fl",
      "at"
    ],
    [
      "curren",
      "cy"
    ],
    [
      "lo",
      "ad"
    ],
    [
      "prote",
      "ct"
    ],
    [
      "element",
      "s"
    ],
    [
      "co",
      "mb"
    ],
    [
      "JavaScript",
      "?"
    ],
    [
      "Sh",
      "are"
    ],
    [
      "ar",
      "ch"
    ],
    [
      "-1",
      "]"
    ],
    [
      "(",
      "b"
    ],
    [
      "uni",
      "que"
    ],
    [
      "()",
      "."
    ],
    [
      "f",
      "n"
    ],
    [
      "(arr",
      "){"
    ],
    [
      "',",
      "'"
    ],
    [
      "my",
      "_"
    ],
    [
      "comp",
      "u"
    ],
    [
      "h",
      "app"
    ],
    [
      "d",
      "d"
    ],
    [
      "pe",
      "op"
    ],
    [
      "sh",
      "ip"
    ],
    [
      "u",
      "res"
    ],
    [
      "h",
      "av"
    ],
    [
      "ical",
      "ly"
    ],
    [
      "part",
      "s"
    ],
    [
      "co",
      "gn"
    ],
    [
      "ce",
      "."
    ],
    [
      "it",
      "y."
    ],
    [
      "J",
      "ap"
    ],
    [
      "Jap",
      "an"
    ],
    [
      "of",
      "ten"
    ],
    [
      "ap",
      "e"
    ],
    [
      "the",
      "re"
    ],
    [
      "pain",
      "ted"
    ],
    [
      "6",
      "0"
    ],
    [
      "S",
      "un"
    ],
    [
      "G",
      "ree"
    ],
    [
      "sun",
      "light"
    ],
    [
      "2",
      "7"
    ],
    [
      "cont",
      "rol"
    ],
    [
      "ine",
      "?"
    ],
    [
      "sche",
      "dule"
    ],
    [
      "it",
      ","
    ],
    [
      "g",
      "ori"
    ],
    [
      "on",
      "ly"
    ],
    [
      "r",
      "ow"
    ],
    [
      "s",
      "li"
    ],
    [
      "mem",
      "ber"
    ],
    [
      "en",
      "ough"
    ],
    [
      "i",
      "g"
    ],
    [
      "exp",
      "ress"
    ],
    [
      "pre",
      "pare"
    ],
    [
      "un",
      "k"
    ],
    [
      "ver",
      "b"
    ],
    [
      "c",
      "all"
    ],
    [
      "s",
      "we"
    ],
    [
      "br",
      "ate"
    ],
    [
      "â",
      ""
    ],
    [
      "d",
      "ou"
    ],
    [
      "f",
      "f"
    ],
    [
      "f",
      "ish"
    ],
    [
      "wh",
      "ite"
    ],
    [
      "gener",
      "ate"
    ],
    [
      "[",
      ":"
    ],
    [
      "'.",
      "join"
    ],
    [
      "*",
      "*"
    ],
    [
      "out.",
      "append"
    ],
    [
      "s",
      "v"
    ],
    [
      "(",
      "i"
    ],
    [
      "for(",
      "let"
    ],
    [
      "b",
      "){"
    ],
    [
      "b",
      "ash"
    ],
    [
      "self",
      "-"
    ],
    [
      "ox",
      "ide"
    ],
    [
      "or",
      "b"
    ],
    [
      "communic",
      "ate"
    ],
    [
      "p",
      "ast"
    ],
    [
      "ve",
      "get"
    ],
    [
      "cl",
      "es"
    ],
    [
      "ex",
      "peri"
    ],
    [
      "Wor",
      "ld"
    ],
    [
      "re",
      "si"
    ],
    [
      "c",
      "ing"
    ],
    [
      "ou",
      "se"
    ],
    [
      "ap",
      "or"
    ],
    [
      "bi",
      "o"
    ],
    [
      "G",
      "o"
    ],
    [
      "N",
      "A"
    ],
    [
      "atmo",
      "sphere"
    ],
    [
      "bir",
      "d"
    ],
    [
      "f",
      "ac"
    ],
    [
      "f",
      "all"
    ],
    [
      "cent",
      "er"
    ],
    [
      "ou",
      "d"
    ],
    [
      "ion",
      "."
    ],
    [
      "c",
      "ity"
    ],
    [
      "lo",
      "op"
    ],
    [
      "in",
      "se"
    ],
    [
      "w",
      "al"
    ],
    [
      "ren",
      "gth"
    ],
    [
      "as",
      "on"
    ],
    [
      "ma",
      "de"
    ],
    [
      "c",
      "."
    ],
    [
      "5",
      "0"
    ],
    [
      "2",
      "4"
    ],
    [
      "o",
      "per"
    ],
    [
      "man",
      "age"
    ],
    [
      "ch",
      "unk"
    ],
    [
      "go",
      "als"
    ],
    [
      "dr",
      "ink"
    ],
    [
      "let",
      "ter"
    ],
    [
      "e",
      "y"
    ],
    [
      "au",
      "to"
    ],
    [
      "altern",
      "ative"
    ],
    [
      "but",
      "ter"
    ],
    [
      "â",
      ""
    ],
    [
      "base",
      "d"
    ],
    [
      "a",
      "mple"
    ],
    [
      "mus",
      "cle"
    ],
    [
      "ti",
      "m"
    ],
    [
      "some",
      "one"
    ],
    [
      "di",
      "gest"
    ],
    [
      "regular",
      "ly,"
    ],
    [
      "ind",
      "ro"
    ],
    [
      "indro",
      "me"
    ],
    [
      "ent",
      ","
    ],
    [
      "us",
      "er"
    ],
    [
      "valu",
      "es"
    ],
    [
      "um",
      "n"
    ],
    [
      "[j",
      "]"
    ],
    [
      "/",
      "/"
    ],
    [
      "=",
      "'"
    ],
    [
      "a",
      "-"
    ],
    [
      "(",
      "s,"
    ],
    [
      "print",
      "('"
    ],
    [
      "s",
      "="
    ],
    [
      "(s",
      "){"
    ],
    [
      "|",
      "|"
    ],
    [
      ")",
      ");"
    ],
    [
      "p",
      "x"
    ],
    [
      "I",
      "N"
    ],
    [
      "t",
      "p"
    ],
    [
      "we",
      "ll"
    ],
    [
      "ab",
      "les"
    ],
    [
      "f",
      "ound"
    ],
    [
      "peop",
      "le"
    ],
    [
      "grow",
      "th"
    ],
    [
      "ke",
      "t"
    ],
    [
      "re",
      "cogn"
    ],
    [
      "am",
      "ount"
    ],
    [
      "6",
      "4"
    ],
    [
      "fe",
      "ren"
    ],
    [
      "ap",
      "pro"
    ],
    [
      "3",
      "2"
    ],
    [
      "programm",
      "ing?"
    ],
    [
      "di",
      "d"
    ],
    [
      "en",
      "."
    ],
    [
      "bre",
      "athe"
    ],
    [
      "d",
      "ri"
    ],
    [
      "f",
      "ric"
    ],
    [
      "ant",
      "s"
    ],
    [
      "in",
      "ven"
    ],
    [
      "inven",
      "ted"
    ],
    [
      "ar",
      "s"
    ],
    [
      "fi",
      "el"
    ],
    [
      "g",
      "ment"
    ],
    [
      "ou",
      "ch"
    ],
    [
      "l",
      "am"
    ],
    [
      "t",
      "ail"
    ],
    [
      "t",
      "le"
    ],
    [
      "it",
      "ch"
    ],
    [
      "st",
      "rength"
    ],
    [
      "un",
      "e"
    ],
    [
      "elect",
      "ric"
    ],
    [
      "tin",
      "y"
    ],
    [
      "00",
      "0"
    ],
    [
      "me",
      "di"
    ],
    [
      "se",
      "d"
    ],
    [
      "l",
      "ines"
    ],
    [
      "c",
      "lar"
    ],
    [
      "fl",
      "u"
    ],
    [
      "day",
      "."
    ],
    [
      "z",
      "z"
    ],
    [
      "co",
      "ok"
    ],
    [
      "mer",
      "ge"
    ],
    [
      "y",
      "og"
    ],
    [
      "b",
      "one"
    ],
    [
      "mind",
      "ful"
    ],
    [
      "some",
      "thing"
    ],
    [
      "st",
      "op"
    ],
    [
      "ound",
      "s"
    ],
    [
      "g",
      "ger"
    ],
    [
      "a",
      "ver"
    ],
    [
      "li",
      "ve"
    ],
    [
      "l",
      "ic"
    ],
    [
      "a",
      "way"
    ],
    [
      "[",
      "x"
    ],
    [
      "i",
      "="
    ],
    [
      "(",
      "simple"
    ],
    [
      "c",
      "sv"
    ],
    [
      "=[",
      "];"
    ],
    [
      "C",
      "O"
    ],
    [
      "'",
      "re"
    ],
    [
      "n",
      "ational"
    ],
    [
      "at",
      "om"
    ],
    [
      "ro",
      "ss"
    ],
    [
      "per",
      "form"
    ],
    [
      "5",
      ","
    ],
    [
      "degre",
      "es"
    ],
    [
      "dai",
      "ly"
    ],
    [
      "sh",
      "are"
    ],
    [
      "a",
      "mp"
    ],
    [
      "learn",
      "ing"
    ],
    [
      "ab",
      "l"
    ],
    [
      "ph",
      "ys"
    ],
    [
      "ex",
      "ist"
    ],
    [
      "pos",
      "ition"
    ],
    [
      "go",
      "al"
    ],
    [
      "pri",
      "me"
    ],
    [
      "env",
      "iron"
    ],
    [
      "Au",
      "str"
    ],
    [
      "li",
      "ving"
    ],
    [
      "square",
      "d"
    ],
    [
      "N",
      "ew"
    ],
    [
      "E",
      "gy"
    ],
    [
      "me",
      "ter"
    ],
    [
      "we",
      "ek"
    ],
    [
      "rele",
      "ase"
    ],
    [
      "ener",
      "g"
    ],
    [
      "let",
      "ters"
    ],
    [
      "z",
      "er"
    ],
    [
      "u",
      "bl"
    ],
    [
      "e",
      "gg"
    ],
    [
      "r",
      "out"
    ],
    [
      "repe",
      "at"
    ],
    [
      "pre",
      "vent"
    ],
    [
      "dro",
      "p"
    ],
    [
      "mole",
      "cul"
    ],
    [
      "molecul",
      "es"
    ],
    [
      "ap",
      "pe"
    ],
    [
      "12",
      "."
    ],
    [
      "c",
      "u"
    ],
    [
      "m",
      "ath"
    ],
    [
      "m",
      "ate"
    ],
    [
      "mak",
      "es"
    ],
    [
      "us",
      "ually"
    ],
    [
      "al",
      "gori"
    ],
    [
      "algori",
      "th"
    ],
    [
      "col",
      "lection"
    ],
    [
      "meas",
      "ure"
    ],
    [
      "pass",
      "word"
    ],
    [
      "scre",
      "en"
    ],
    [
      "number",
      "s"
    ],
    [
      "of",
      "f"
    ],
    [
      "P",
      "I"
    ],
    [
      "F",
      "i"
    ],
    [
      "vitam",
      "in"
    ],
    [
      "se",
      "lect"
    ],
    [
      "s",
      "ame"
    ],
    [
      "le",
      "te"
    ],
    [
      "si",
      "ze"
    ],
    [
      "us",
      "ers"
    ],
    [
      "se",
      "ed"
    ],
    [
      "en",
      "sure"
    ],
    [
      "se",
      "arch"
    ],
    [
      "r",
      "ows"
    ],
    [
      "b",
      ","
    ],
    [
      "F",
      "alse"
    ],
    [
      "len",
      "("
    ],
    [
      "(",
      "d"
    ],
    [
      "n",
      "ull"
    ],
    [
      "r",
      "="
    ],
    [
      ";i",
      "++"
    ],
    [
      "ob",
      "j"
    ],
    [
      "W",
      "H"
    ],
    [
      "WH",
      "ER"
    ],
    [
      "WHER",
      "E"
    ],
    [
      "_",
      "id"
    ],
    [
      "ht",
      "tp"
    ],
    [
      "in",
      "put"
    ],
    [
      "ox",
      "id"
    ],
    [
      "s",
      "ci"
    ],
    [
      "mean",
      "ing"
    ],
    [
      "Earth",
      "."
    ],
    [
      "cause",
      "d"
    ],
    [
      "minut",
      "es"
    ],
    [
      "inform",
      "ation"
    ],
    [
      "net",
      "work"
    ],
    [
      "all",
      "ow"
    ],
    [
      "l",
      "li"
    ],
    [
      "de",
      "cis"
    ],
    [
      "decis",
      "ion"
    ],
    [
      "person",
      "al"
    ],
    [
      "2",
      "9"
    ],
    [
      "p",
      "end"
    ],
    [
      "par",
      "ti"
    ],
    [
      "4",
      "5"
    ],
    [
      "ation",
      "s."
    ],
    [
      "g",
      ","
    ],
    [
      "j",
      "u"
    ],
    [
      "writ",
      "ten"
    ],
    [
      "W",
      "e"
    ],
    [
      "d",
      "ark"
    ],
    [
      "to",
      "ge"
    ],
    [
      "toge",
      "ther"
    ],
    [
      "the",
      "ory"
    ],
    [
      "h",
      "ouse"
    ],
    [
      "D",
      "NA"
    ],
    [
      "bl",
      "ack"
    ],
    [
      "pro",
      "per"
    ],
    [
      "peri",
      "od"
    ],
    [
      "p",
      "ol"
    ],
    [
      "hel",
      "lo"
    ],
    [
      "r",
      "ing"
    ],
    [
      "E",
      "ach"
    ],
    [
      "b",
      "ow"
    ],
    [
      "st",
      "o"
    ],
    [
      "t",
      "ouch"
    ],
    [
      "ide",
      "a?"
    ],
    [
      "ess",
      "enti"
    ],
    [
      "ar",
      "ound"
    ],
    [
      "rot",
      "ate"
    ],
    [
      "w",
      "arm"
    ],
    [
      "s",
      "ing"
    ],
    [
      "proble",
      "m"
    ],
    [
      "se",
      "e"
    ],
    [
      "s",
      "c"
    ],
    [
      "gr",
      "at"
    ],
    [
      "it",
      "ude"
    ],
    [
      "mi",
      "x"
    ],
    [
      "un",
      "til"
    ],
    [
      "id",
      "ence"
    ],
    [
      "yog",
      "ur"
    ],
    [
      "sol",
      "ution"
    ],
    [
      "â",
      "s"
    ],
    [
      "we",
      "ar"
    ],
    [
      "sh",
      "o"
    ],
    [
      "or",
      "d"
    ],
    [
      "um",
      "ent"
    ],
    [
      "en",
      "se"
    ],
    [
      "aver",
      "age"
    ],
    [
      "but",
      "ton"
    ],
    [
      "ath",
      "y"
    ],
    [
      "wi",
      "d"
    ],
    [
      "wid",
      "th"
    ],
    [
      "kn",
      "ow"
    ],
    [
      "sur",
      "face"
    ],
    [
      "'.join",
      "("
    ],
    [
      "inde",
      "x"
    ],
    [
      "'",
      ")."
    ],
    [
      "(lst",
      ")"
    ],
    [
      "]",
      "."
    ],
    [
      "b",
      "da"
    ],
    [
      "i",
      "=0"
    ],
    [
      ")",
      "=>"
    ],
    [
      "T",
      "E"
    ],
    [
      "(",
      "\""
    ],
    [
      "under",
      "stand"
    ],
    [
      "f",
      "ill"
    ],
    [
      "task",
      "s"
    ],
    [
      "ce",
      "?"
    ],
    [
      "t",
      "ing"
    ],
    [
      "3",
      "0"
    ],
    [
      "Th",
      "is"
    ],
    [
      "se",
      "a"
    ],
    [
      "g",
      "in"
    ],
    [
      "v",
      "ac"
    ],
    [
      "6",
      ","
    ],
    [
      "we",
      "ight"
    ],
    [
      "n",
      "on"
    ],
    [
      "ter",
      "m"
    ],
    [
      "Can",
      "ad"
    ],
    [
      "have",
      "?"
    ],
    [
      "chang",
      "es"
    ],
    [
      "ort",
      "u"
    ],
    [
      "for",
      "?"
    ],
    [
      "re",
      "action"
    ],
    [
      "move",
      "ment"
    ],
    [
      "En",
      "gl"
    ],
    [
      "Engl",
      "ish"
    ],
    [
      "w",
      "."
    ],
    [
      "le",
      "g"
    ],
    [
      "p",
      "an"
    ],
    [
      "ubl",
      "ic"
    ],
    [
      "time",
      ","
    ],
    [
      "K",
      "e"
    ],
    [
      "li",
      "mit"
    ],
    [
      "with",
      "in"
    ],
    [
      "st",
      "ress"
    ],
    [
      "tech",
      "ni"
    ],
    [
      "effe",
      "ctive"
    ],
    [
      "incre",
      "ase"
    ],
    [
      "re",
      "member"
    ],
    [
      "bound",
      "ari"
    ],
    [
      "me",
      "et"
    ],
    [
      "curren",
      "t"
    ],
    [
      "fast",
      "er"
    ],
    [
      "to",
      "ol"
    ],
    [
      "le",
      "?"
    ],
    [
      "8",
      "?"
    ],
    [
      "ab",
      "ility"
    ],
    [
      "bo",
      "th"
    ],
    [
      "flo",
      "at"
    ],
    [
      "m",
      "ater"
    ],
    [
      "n",
      "oun"
    ],
    [
      "g",
      "ive"
    ],
    [
      "cal",
      "m"
    ],
    [
      "s",
      "he"
    ],
    [
      "import",
      "ant"
    ],
    [
      "ce",
      "le"
    ],
    [
      "cele",
      "brate"
    ],
    [
      "cond",
      "ition"
    ],
    [
      "v",
      "s"
    ],
    [
      "sn",
      "ack"
    ],
    [
      "char",
      "ge"
    ],
    [
      "s",
      "w"
    ],
    [
      "res",
      "ume"
    ],
    [
      "build",
      "ing"
    ],
    [
      "de",
      "e"
    ],
    [
      "pe",
      "st"
    ],
    [
      "lo",
      "ok"
    ],
    [
      "mic",
      "ro"
    ],
    [
      "if",
      "t"
    ],
    [
      "r",
      "ound"
    ],
    [
      "i",
      "es"
    ],
    [
      "pri",
      "or"
    ],
    [
      "ra",
      "me"
    ],
    [
      "h",
      "old"
    ],
    [
      "dou",
      "ble"
    ],
    [
      "enti",
      "fy"
    ],
    [
      "as",
      "es"
    ],
    [
      "or",
      "m"
    ],
    [
      "dist",
      "ance"
    ],
    [
      "re",
      "quest"
    ],
    [
      "dat",
      "a."
    ],
    [
      "pal",
      "indrome"
    ],
    [
      "CS",
      "S"
    ],
    [
      "st",
      "atic"
    ],
    [
      "e",
      "st"
    ],
    [
      "is",
      "_"
    ],
    [
      "(n",
      "um"
    ],
    [
      "(x",
      ","
    ],
    [
      "dig",
      "its"
    ],
    [
      "to",
      "_"
    ],
    [
      "(",
      "c"
    ],
    [
      "os.",
      "p"
    ],
    [
      "os.p",
      "ath."
    ],
    [
      "(simple",
      ")."
    ],
    [
      "(",
      "):"
    ],
    [
      "(",
      "("
    ],
    [
      "lam",
      "bda"
    ],
    [
      ">",
      "="
    ],
    [
      "ex",
      "cept"
    ],
    [
      "b",
      ";"
    ],
    [
      "=",
      "Math."
    ],
    [
      "D",
      "E"
    ],
    [
      "file.",
      "txt"
    ],
    [
      "1,",
      "2,3"
    ],
    [
      "\"",
      ">"
    ],
    [
      "sal",
      "ary"
    ],
    [
      "we",
      "igh"
    ],
    [
      "alternative",
      "?"
    ],
    [
      "than",
      "k"
    ],
    [
      "as",
      "si"
    ],
    [
      "progra",
      "m"
    ],
    [
      "T",
      "o"
    ],
    [
      "1",
      ")"
    ],
    [
      "de",
      "red"
    ],
    [
      "ho",
      "me"
    ],
    [
      "compu",
      "ter"
    ],
    [
      "S",
      "e"
    ],
    [
      "ser",
      "ver"
    ],
    [
      "incl",
      "ud"
    ],
    [
      "ated",
      ","
    ],
    [
      "occur",
      "s"
    ],
    [
      "ce",
      "ption"
    ],
    [
      "3",
      "7"
    ],
    [
      "pattern",
      "s"
    ],
    [
      "we",
      "ather"
    ],
    [
      "ide",
      "as"
    ],
    [
      "mat",
      "ter"
    ],
    [
      "an",
      "e"
    ],
    [
      "experi",
      "ence"
    ],
    [
      "ach",
      "ie"
    ],
    [
      "achie",
      "ve"
    ],
    [
      "co",
      "ding"
    ],
    [
      "pe",
      "t"
    ],
    [
      "d",
      "ra"
    ],
    [
      "gra",
      "vity"
    ],
    [
      "P",
      "re"
    ],
    [
      "bo",
      "il"
    ],
    [
      "th",
      "ough"
    ],
    [
      "z",
      "on"
    ],
    [
      "co",
      "ve"
    ],
    [
      "cove",
      "red"
    ],
    [
      "develo",
      "ped"
    ],
    [
      "A",
      "l"
    ],
    [
      "ma",
      "mm"
    ],
    [
      "organ",
      "is"
    ],
    [
      "bod",
      "y?"
    ],
    [
      "A",
      "fric"
    ],
    [
      "arr",
      "y"
    ],
    [
      "day",
      "s"
    ],
    [
      "Egy",
      "pt"
    ],
    [
      "cre",
      "d"
    ],
    [
      "K",
      "ing"
    ],
    [
      "T",
      "P"
    ],
    [
      "i",
      "a?"
    ],
    [
      "te",
      "am"
    ],
    [
      "land",
      "?"
    ],
    [
      "n",
      "."
    ],
    [
      "i",
      "."
    ],
    [
      "le",
      "ad"
    ],
    [
      "ab",
      "sor"
    ],
    [
      "cl",
      "oud"
    ],
    [
      "mo",
      "ving"
    ],
    [
      "un",
      "g"
    ],
    [
      "equ",
      "al"
    ],
    [
      "one",
      "y"
    ],
    [
      "res",
      "h"
    ],
    [
      "P",
      "o"
    ],
    [
      "dr",
      "y"
    ],
    [
      "he",
      "av"
    ],
    [
      "elect",
      "r"
    ],
    [
      "se",
      "par"
    ],
    [
      "gen",
      "e"
    ],
    [
      "cul",
      "ate"
    ],
    [
      "14",
      "4"
    ],
    [
      "p",
      "un"
    ],
    [
      "skill",
      "s?"
    ],
    [
      "pres",
      "ent"
    ],
    [
      "den",
      "se"
    ],
    [
      "per",
      "spe"
    ],
    [
      "re",
      "cur"
    ],
    [
      "ri",
      "es"
    ],
    [
      "f",
      "it"
    ],
    [
      "help",
      "s"
    ],
    [
      "st",
      "ory"
    ],
    [
      "of",
      "fer"
    ],
    [
      "fol",
      "low"
    ],
    [
      "si",
      "mil"
    ],
    [
      "simil",
      "ar"
    ],
    [
      "dee",
      "pest"
    ],
    [
      "s",
      "low"
    ],
    [
      "ex",
      "ample"
    ],
    [
      "clo",
      "se"
    ],
    [
      "mat",
      "ch"
    ],
    [
      "ad",
      "just"
    ],
    [
      "c",
      "are"
    ],
    [
      "sli",
      "ce"
    ],
    [
      "state",
      "ment"
    ],
    [
      "dis",
      "play"
    ],
    [
      "vari",
      "able"
    ],
    [
      "break",
      "s,"
    ],
    [
      "v",
      "o"
    ],
    [
      "B",
      "l"
    ],
    [
      "tri",
      "gger"
    ],
    [
      "a",
      "it"
    ],
    [
      "pr",
      "inci"
    ],
    [
      "col",
      "umn"
    ],
    [
      "Tr",
      "ue"
    ],
    [
      "s",
      "("
    ],
    [
      "%",
      "2"
    ],
    [
      "pre",
      "fix"
    ],
    [
      "arr.",
      "length"
    ],
    [
      "if",
      "(n"
    ],
    [
      "f",
      "alse"
    ],
    [
      "(",
      "k"
    ],
    [
      "0",
      ";"
    ],
    [
      "a.",
      "length"
    ],
    [
      "B",
      "Y"
    ],
    [
      "custom",
      "er"
    ],
    [
      "'",
      "Hello"
    ],
    [
      "asyn",
      "c"
    ],
    [
      "li",
      "on"
    ],
    [
      "nes",
      "s,"
    ],
    [
      "Gree",
      "k"
    ],
    [
      "f",
      "ur"
    ],
    [
      "cre",
      "am"
    ],
    [
      "co",
      "hol"
    ],
    [
      "anti",
      "oxid"
    ],
    [
      "rel",
      "ation"
    ],
    [
      "p",
      "ur"
    ],
    [
      "av",
      "or"
    ],
    [
      "ce",
      ","
    ],
    [
      "ty",
      "p"
    ],
    [
      "di",
      "oxide"
    ],
    [
      "3",
      ","
    ],
    [
      "de",
      "v"
    ],
    [
      "st",
      "res"
    ],
    [
      "pos",
      "itive"
    ],
    [
      "ar",
      "ti"
    ],
    [
      "8",
      "4"
    ],
    [
      "ount",
      "ain"
    ],
    [
      "g",
      "ri"
    ],
    [
      "i",
      "or"
    ],
    [
      "le",
      "ment"
    ],
    [
      "ch",
      "all"
    ],
    [
      "f",
      "our"
    ],
    [
      "ou",
      "ght"
    ],
    [
      "k",
      "i"
    ],
    [
      "p",
      "ull"
    ],
    [
      "N",
      "e"
    ],
    [
      "sk",
      "in"
    ],
    [
      "planet",
      "s"
    ],
    [
      "mamm",
      "al"
    ],
    [
      "P",
      "ortu"
    ],
    [
      "des",
      "ert"
    ],
    [
      "stand",
      "s"
    ],
    [
      "te",
      "eth"
    ],
    [
      "um",
      "?"
    ],
    [
      "st",
      "ain"
    ],
    [
      "HT",
      "TP"
    ],
    [
      "cent",
      "r"
    ],
    [
      "it",
      "?"
    ],
    [
      "up",
      "per"
    ],
    [
      "S",
      "y"
    ],
    [
      "be",
      "l"
    ],
    [
      "Ke",
      "ep"
    ],
    [
      "sa",
      "u"
    ],
    [
      "le",
      "mon"
    ],
    [
      "wal",
      "k"
    ],
    [
      "consist",
      "ent"
    ],
    [
      "b",
      "ot"
    ],
    [
      "electr",
      "ical"
    ],
    [
      "ref",
      "lect"
    ],
    [
      "re",
      "cor"
    ],
    [
      "square",
      "d?"
    ],
    [
      "wi",
      "ll"
    ],
    [
      "w",
      "er"
    ],
    [
      "hand",
      "le"
    ],
    [
      "sum",
      "m"
    ],
    [
      "vis",
      "i"
    ],
    [
      "cli",
      "mate"
    ],
    [
      "mag",
      "ne"
    ],
    [
      "magne",
      "tic"
    ],
    [
      "po",
      "se"
    ],
    [
      "th",
      "ink"
    ],
    [
      "re",
      "am"
    ],
    [
      "sh",
      "ows"
    ],
    [
      "ess",
      "ion"
    ],
    [
      "ef",
      "fic"
    ],
    [
      "effic",
      "i"
    ],
    [
      "fe",
      "ed"
    ],
    [
      "sent",
      "ence"
    ],
    [
      "li",
      "ment"
    ],
    [
      "Y",
      "our"
    ],
    [
      "grat",
      "itude"
    ],
    [
      "che",
      "es"
    ],
    [
      "p",
      "per"
    ],
    [
      "r",
      "is"
    ],
    [
      "con",
      "f"
    ],
    [
      "question",
      "s,"
    ],
    [
      "lo",
      "ck"
    ],
    [
      "cho",
      "ose"
    ],
    [
      "r",
      "ate"
    ],
    [
      "bo",
      "ost"
    ],
    [
      "b",
      "aking"
    ],
    [
      "je",
      "ctive"
    ],
    [
      "re",
      "ci"
    ],
    [
      "swe",
      "et"
    ],
    [
      "v",
      "ir"
    ],
    [
      "su",
      "c"
    ],
    [
      "s",
      "end"
    ],
    [
      "comp",
      "ress"
    ],
    [
      "smo",
      "oth"
    ],
    [
      "produ",
      "cts"
    ],
    [
      "fiber",
      ","
    ],
    [
      "ne",
      "d"
    ],
    [
      "r",
      "."
    ],
    [
      "produ",
      "ct"
    ],
    [
      "cat",
      "ch"
    ],
    [
      "f",
      "ail"
    ],
    [
      "In",
      "t"
    ],
    [
      "e",
      "i"
    ],
    [
      "mem",
      "ory"
    ],
    [
      "ly",
      "ing"
    ],
    [
      "num",
      "s"
    ],
    [
      "1",
      "]"
    ],
    [
      "(arr",
      ","
    ],
    [
      "lo",
      ","
    ],
    [
      "collection",
      "s"
    ],
    [
      "'",
      "'"
    ],
    [
      "(path",
      ","
    ],
    [
      "p",
      "ad"
    ],
    [
      "di",
      "r"
    ],
    [
      "C",
      "ase"
    ],
    [
      "x",
      ":"
    ],
    [
      "(",
      "int"
    ],
    [
      "b",
      "="
    ],
    [
      "O",
      "b"
    ],
    [
      "for(",
      "const"
    ],
    [
      "(a,",
      "b){"
    ],
    [
      "flo",
      "or"
    ],
    [
      "6",
      "7"
    ],
    [
      "option",
      ">"
    ],
    [
      "f",
      "lower"
    ],
    [
      "\"",
      ","
    ],
    [
      "A",
      "mer"
    ],
    [
      "Amer",
      "ic"
    ],
    [
      "Â",
      "²"
    ],
    [
      "Â²",
      ")"
    ],
    [
      "w",
      "aves"
    ],
    [
      "mach",
      "ine"
    ],
    [
      "dic",
      "tion"
    ],
    [
      "tr",
      "ust"
    ],
    [
      "co",
      "ffe"
    ],
    [
      "b",
      "as"
    ],
    [
      "2",
      ")"
    ],
    [
      "relation",
      "ship"
    ],
    [
      "gre",
      "en"
    ],
    [
      "balance",
      "d"
    ],
    [
      "re",
      "ce"
    ],
    [
      "13",
      "."
    ],
    [
      "de",
      "pend"
    ],
    [
      "phys",
      "ic"
    ],
    [
      "parti",
      "cles"
    ],
    [
      "sol",
      "ve"
    ],
    [
      "chall",
      "eng"
    ],
    [
      "G",
      "er"
    ],
    [
      "P",
      "ri"
    ],
    [
      "water",
      "."
    ],
    [
      "ki",
      "lo"
    ],
    [
      "C",
      "el"
    ],
    [
      "Cel",
      "si"
    ],
    [
      "N",
      "ame"
    ],
    [
      "for",
      "ce"
    ],
    [
      "p",
      "en"
    ],
    [
      "and",
      "er"
    ],
    [
      "gra",
      "vit"
    ],
    [
      "B",
      "ra"
    ],
    [
      "Bra",
      "z"
    ],
    [
      "bod",
      "y."
    ],
    [
      "water",
      "?"
    ],
    [
      "in",
      "ste"
    ],
    [
      "ad",
      "ult"
    ],
    [
      "animal",
      "?"
    ],
    [
      "M",
      "ex"
    ],
    [
      "R",
      "us"
    ],
    [
      "Rus",
      "si"
    ],
    [
      "ow",
      "."
    ],
    [
      "B",
      "u"
    ],
    [
      "h",
      "ar"
    ],
    [
      "D",
      "i"
    ],
    [
      "string",
      "s"
    ],
    [
      "string",
      "s."
    ],
    [
      "Pl",
      "an"
    ],
    [
      "ab",
      "ol"
    ],
    [
      "au",
      "th"
    ],
    [
      "N",
      "i"
    ],
    [
      "energ",
      "y."
    ],
    [
      "N",
      "or"
    ],
    [
      "environ",
      "ment"
    ],
    [
      "ob",
      "ser"
    ],
    [
      "cont",
      "act"
    ],
    [
      "au",
      "di"
    ],
    [
      "st",
      "."
    ],
    [
      "o",
      "te"
    ],
    [
      "ro",
      "ck"
    ],
    [
      "ro",
      "om"
    ],
    [
      "break",
      "fast"
    ],
    [
      "fru",
      "it"
    ],
    [
      "was",
      "h"
    ],
    [
      "s",
      "of"
    ],
    [
      "min",
      "ute"
    ],
    [
      "work",
      "out"
    ],
    [
      "imm",
      "une"
    ],
    [
      "sens",
      "ors"
    ],
    [
      "9",
      "?"
    ],
    [
      "6",
      "."
    ],
    [
      "h",
      "al"
    ],
    [
      "ation",
      "s,"
    ],
    [
      "m",
      "u"
    ],
    [
      "s",
      "it"
    ],
    [
      "vi",
      "ce"
    ],
    [
      "di",
      "str"
    ],
    [
      "it",
      "ize"
    ],
    [
      "prog",
      "ress"
    ],
    [
      "mus",
      "ic"
    ],
    [
      "mor",
      "ning"
    ],
    [
      "C",
      "he"
    ],
    [
      "a",
      "ffe"
    ],
    [
      "feed",
      "back"
    ],
    [
      "b",
      "an"
    ],
    [
      "cre",
      "ative"
    ],
    [
      "sp",
      "read"
    ],
    [
      "ma",
      "y"
    ],
    [
      "h",
      "air"
    ],
    [
      "br",
      "own"
    ],
    [
      "feel",
      "ing"
    ],
    [
      "breath",
      "ing"
    ],
    [
      "nut",
      "ri"
    ],
    [
      "f",
      "."
    ],
    [
      "clo",
      "th"
    ],
    [
      "s",
      "od"
    ],
    [
      "in",
      "o"
    ],
    [
      "p",
      "age"
    ],
    [
      "t",
      "it"
    ],
    [
      "mo",
      "ist"
    ],
    [
      "p",
      "ag"
    ],
    [
      "nam",
      "es"
    ],
    [
      "cor",
      "rect"
    ],
    [
      "we",
      "b"
    ],
    [
      "t",
      "ree"
    ],
    [
      "hot",
      "test"
    ],
    [
      "text",
      "ure"
    ],
    [
      "fi",
      "g"
    ],
    [
      "ity",
      ","
    ],
    [
      "car",
      "d"
    ],
    [
      "an",
      "x"
    ],
    [
      "dig",
      "ital"
    ],
    [
      "mb",
      "ra"
    ],
    [
      "mbra",
      "ce"
    ],
    [
      "gr",
      "ate"
    ],
    [
      "ine",
      "d"
    ],
    [
      "S",
      "T"
    ],
    [
      "(a",
      ")"
    ],
    [
      "um",
      "er"
    ],
    [
      "else",
      ":"
    ],
    [
      "(x",
      ")"
    ],
    [
      ")",
      "]"
    ],
    [
      "n",
      "):"
    ],
    [
      "(",
      "iter"
    ],
    [
      "(s",
      ")"
    ],
    [
      "random",
      "."
    ],
    [
      "f",
      ":"
    ],
    [
      "e",
      "li"
    ],
    [
      "'",
      "]"
    ],
    [
      "'",
      "}"
    ],
    [
      "==",
      "="
    ],
    [
      "(a,",
      "b)"
    ],
    [
      "$",
      "{"
    ],
    [
      "out",
      "=[];"
    ],
    [
      "for",
      "Each"
    ],
    [
      "customer",
      "_id"
    ],
    [
      "un",
      "d"
    ],
    [
      "year",
      "s"
    ],
    [
      "re",
      "al"
    ],
    [
      "coffe",
      "e"
    ],
    [
      "Â",
      "°"
    ],
    [
      "be",
      "li"
    ],
    [
      "c",
      "es,"
    ],
    [
      "ac",
      "ross"
    ],
    [
      "W",
      "il"
    ],
    [
      "hour",
      "s"
    ],
    [
      "sleep",
      ","
    ],
    [
      "f",
      "am"
    ],
    [
      "im",
      "ate"
    ],
    [
      "m",
      "ountain"
    ],
    [
      "in",
      "ner"
    ],
    [
      "veget",
      "abl"
    ],
    [
      "be",
      "hav"
    ],
    [
      "behav",
      "ior"
    ],
    [
      "an",
      "ces"
    ],
    [
      "i",
      "re"
    ],
    [
      "on",
      "line"
    ],
    [
      "M",
      "or"
    ],
    [
      "sh",
      "ape"
    ],
    [
      "th",
      "ought"
    ],
    [
      "A",
      "ust"
    ],
    [
      "G",
      "ra"
    ],
    [
      "Mo",
      "on"
    ],
    [
      "Braz",
      "il"
    ],
    [
      "W",
      "ater"
    ],
    [
      "form",
      "ul"
    ],
    [
      "e",
      "co"
    ],
    [
      "In",
      "di"
    ],
    [
      "Mex",
      "i"
    ],
    [
      "Mexi",
      "co"
    ],
    [
      "te",
      "le"
    ],
    [
      "in",
      "a"
    ],
    [
      "un",
      "it"
    ],
    [
      "in",
      ","
    ],
    [
      "ance",
      "."
    ],
    [
      "stand",
      "ard"
    ],
    [
      "abol",
      "is"
    ],
    [
      "G",
      "reat"
    ],
    [
      "at",
      "s"
    ],
    [
      "Tr",
      "ans"
    ],
    [
      "P",
      "ro"
    ],
    [
      "tern",
      "al"
    ],
    [
      "vol",
      "can"
    ],
    [
      "v",
      "ine"
    ],
    [
      "sal",
      "t"
    ],
    [
      "J",
      "o"
    ],
    [
      "n",
      "u"
    ],
    [
      "v",
      "ant"
    ],
    [
      "w",
      "rap"
    ],
    [
      "r",
      "y"
    ],
    [
      "appe",
      "ar"
    ],
    [
      "t",
      "rain"
    ],
    [
      "ph",
      "on"
    ],
    [
      "b",
      "ar"
    ],
    [
      "x",
      "."
    ],
    [
      "7",
      "5"
    ],
    [
      "2",
      "3"
    ],
    [
      "1",
      "/"
    ],
    [
      "per",
      "fe"
    ],
    [
      "inte",
      "ger"
    ],
    [
      "distr",
      "action"
    ],
    [
      "clar",
      "ify"
    ],
    [
      "day",
      ","
    ],
    [
      "A",
      "R"
    ],
    [
      "able",
      ","
    ],
    [
      "visi",
      "ble"
    ],
    [
      "th",
      "ings"
    ],
    [
      "ti",
      "v"
    ],
    [
      "m",
      "ar"
    ],
    [
      "s",
      "ion"
    ],
    [
      "i",
      "z"
    ],
    [
      "comp",
      "liment"
    ],
    [
      "ey",
      "es"
    ],
    [
      "at",
      "t"
    ],
    [
      "s",
      "ay"
    ],
    [
      "separ",
      "ate"
    ],
    [
      "p",
      "ay"
    ],
    [
      "can",
      "cel"
    ],
    [
      "tar",
      "get"
    ],
    [
      "Co",
      "mp"
    ],
    [
      "pair",
      "s"
    ],
    [
      "po",
      "st"
    ],
    [
      "produ",
      "ces"
    ],
    [
      "se",
      "ek"
    ],
    [
      "h",
      "ard"
    ],
    [
      "c",
      "ac"
    ],
    [
      "up",
      "date"
    ],
    [
      "p",
      "ack"
    ],
    [
      "p",
      "."
    ],
    [
      "L",
      "o"
    ],
    [
      "pri",
      "ce"
    ],
    [
      "tip",
      "."
    ],
    [
      "col",
      "ate"
    ],
    [
      "ap",
      "er"
    ],
    [
      "c",
      "up"
    ],
    [
      "bo",
      "ard"
    ],
    [
      "prog",
      "res"
    ],
    [
      "in",
      "side"
    ],
    [
      "bio",
      "tic"
    ],
    [
      "met",
      "al"
    ],
    [
      "per",
      "m"
    ],
    [
      "ine",
      ","
    ],
    [
      "4",
      "0"
    ],
    [
      "en",
      "cry"
    ],
    [
      "be",
      "ar"
    ],
    [
      "reci",
      "pe"
    ],
    [
      "dis",
      "cre"
    ],
    [
      "essenti",
      "al"
    ],
    [
      "ric",
      "h"
    ],
    [
      "vo",
      "ice"
    ],
    [
      "ner",
      "v"
    ],
    [
      "ke",
      "d"
    ],
    [
      "re",
      "mo"
    ],
    [
      "respon",
      "se"
    ],
    [
      "se",
      "q"
    ],
    [
      "s",
      "):"
    ],
    [
      "en",
      "umer"
    ],
    [
      "enumer",
      "ate"
    ],
    [
      "ne",
      "sted"
    ],
    [
      "s.",
      "split"
    ],
    [
      "lst",
      ":"
    ],
    [
      "n",
      "th"
    ],
    [
      "x",
      ","
    ],
    [
      "(n",
      "ame"
    ],
    [
      "f",
      "-"
    ],
    [
      "json",
      "."
    ],
    [
      "st",
      "ack"
    ],
    [
      "!",
      "="
    ],
    [
      "sn",
      "ake"
    ],
    [
      "add",
      "ing"
    ],
    [
      "(",
      "/"
    ],
    [
      "1",
      ";"
    ],
    [
      "r",
      ";"
    ],
    [
      ";i",
      "<"
    ],
    [
      "=0",
      ";"
    ],
    [
      "D",
      "ate"
    ],
    [
      "JSON",
      "."
    ],
    [
      "Ob",
      "ject"
    ],
    [
      "Ar",
      "ra"
    ],
    [
      "&",
      "&"
    ],
    [
      "=",
      "a"
    ],
    [
      "emotion",
      "al"
    ],
    [
      "you",
      "'re"
    ],
    [
      "rel",
      "ates"
    ],
    [
      "P",
      "ar"
    ],
    [
      "su",
      "g"
    ],
    [
      "L",
      "et"
    ],
    [
      "minut",
      "es,"
    ],
    [
      "hi",
      "stor"
    ],
    [
      "so",
      "ci"
    ],
    [
      "system",
      "s"
    ],
    [
      "J",
      "up"
    ],
    [
      "Jup",
      "iter"
    ],
    [
      "year",
      "."
    ],
    [
      "l",
      "or"
    ],
    [
      "incl",
      "ude"
    ],
    [
      "A",
      "I"
    ],
    [
      "ch",
      "ick"
    ],
    [
      "9",
      ","
    ],
    [
      "2",
      "8"
    ],
    [
      "consi",
      "der"
    ],
    [
      "contin",
      "ent"
    ],
    [
      "F",
      "ah"
    ],
    [
      "Fah",
      "ren"
    ],
    [
      "Fahren",
      "he"
    ],
    [
      "ri",
      "ver"
    ],
    [
      "world",
      "."
    ],
    [
      "R",
      "i"
    ],
    [
      "dis",
      "covered"
    ],
    [
      "A",
      "lex"
    ],
    [
      "m",
      "ing"
    ],
    [
      "O",
      "cean"
    ],
    [
      "level",
      "."
    ],
    [
      "c",
      "ir"
    ],
    [
      "free",
      "z"
    ],
    [
      "wh",
      "ale"
    ],
    [
      "D",
      "es"
    ],
    [
      "O",
      "r"
    ],
    [
      "v",
      "apor"
    ],
    [
      "per",
      "cent"
    ],
    [
      "tele",
      "phone"
    ],
    [
      "e",
      "m"
    ],
    [
      "R",
      "ed"
    ],
    [
      "King",
      "do"
    ],
    [
      "ing",
      "er"
    ],
    [
      "in",
      "ternal"
    ],
    [
      "er",
      "u"
    ],
    [
      "ful",
      "ly"
    ],
    [
      "cell",
      "s"
    ],
    [
      "b",
      "en"
    ],
    [
      "Ni",
      "ger"
    ],
    [
      "l",
      "."
    ],
    [
      "pi",
      "gment"
    ],
    [
      "a",
      "id"
    ],
    [
      "pre",
      "ci"
    ],
    [
      "rain",
      "bow"
    ],
    [
      "an",
      "o"
    ],
    [
      "pl",
      "at"
    ],
    [
      "oth",
      "ers"
    ],
    [
      "p",
      "ound"
    ],
    [
      "orb",
      "it"
    ],
    [
      "br",
      "ing"
    ],
    [
      "c",
      "ro"
    ],
    [
      "D",
      "e"
    ],
    [
      "conne",
      "ct"
    ],
    [
      "sof",
      "tw"
    ],
    [
      "softw",
      "are"
    ],
    [
      "ro",
      "ll"
    ],
    [
      "f",
      "resh"
    ],
    [
      "techni",
      "que"
    ],
    [
      "method",
      ":"
    ],
    [
      "effective",
      "ly?"
    ],
    [
      "st",
      "ick"
    ],
    [
      "so",
      "il"
    ],
    [
      "p",
      "ath"
    ],
    [
      "elect",
      "ron"
    ],
    [
      "b",
      "at"
    ],
    [
      "phon",
      "es"
    ],
    [
      "f",
      "requ"
    ],
    [
      "are",
      "a"
    ],
    [
      "C",
      "al"
    ],
    [
      "6",
      "?"
    ],
    [
      "=",
      "3"
    ],
    [
      "cu",
      "be"
    ],
    [
      "4",
      "?"
    ],
    [
      "includ",
      "es"
    ],
    [
      "nee",
      "ded"
    ],
    [
      "si",
      "ble"
    ],
    [
      "inter",
      "view"
    ],
    [
      "clarify",
      "ing"
    ],
    [
      "task",
      "s,"
    ],
    [
      "electric",
      "ity"
    ],
    [
      "wh",
      "y"
    ],
    [
      "an",
      "other"
    ],
    [
      "mo",
      "tiv"
    ],
    [
      "break",
      "s"
    ],
    [
      "Trans",
      "late"
    ],
    [
      "ch",
      "."
    ],
    [
      "j",
      "our"
    ],
    [
      "syn",
      "onym"
    ],
    [
      "rap",
      "id"
    ],
    [
      "ant",
      "onym"
    ],
    [
      "we",
      "ak"
    ],
    [
      "inter",
      "net"
    ],
    [
      "w",
      "ar"
    ],
    [
      "W",
      "i"
    ],
    [
      "r",
      "ise"
    ],
    [
      "cont",
      "ent"
    ],
    [
      "ate",
      ","
    ],
    [
      "ju",
      "ice"
    ],
    [
      "bu",
      "d"
    ],
    [
      "bud",
      "get"
    ],
    [
      "ment",
      "s"
    ],
    [
      "bri",
      "ef"
    ],
    [
      "m",
      "ile"
    ],
    [
      "yogur",
      "t"
    ],
    [
      "w",
      "aste"
    ],
    [
      "no",
      "ti"
    ],
    [
      "ic",
      "t"
    ],
    [
      "is",
      "su"
    ],
    [
      "p",
      "ublic"
    ],
    [
      "c",
      "es."
    ],
    [
      "br",
      "ow"
    ],
    [
      "cac",
      "he"
    ],
    [
      "ra",
      "se"
    ],
    [
      "s",
      "light"
    ],
    [
      "do",
      "c"
    ],
    [
      "er",
      "s,"
    ],
    [
      "f",
      "fic"
    ],
    [
      "d",
      "y"
    ],
    [
      "h",
      "arm"
    ],
    [
      "b",
      "ility"
    ],
    [
      "ref",
      "rame"
    ],
    [
      "le",
      "ave"
    ],
    [
      "h",
      "ale"
    ],
    [
      "sod",
      "a"
    ],
    [
      "acti",
      "v"
    ],
    [
      "cho",
      "colate"
    ],
    [
      "re",
      "feren"
    ],
    [
      "tit",
      "le"
    ],
    [
      "p",
      "s"
    ],
    [
      "moist",
      "ure"
    ],
    [
      "me",
      "te"
    ],
    [
      "writ",
      "ing"
    ],
    [
      "gr",
      "aph"
    ],
    [
      "us",
      "?"
    ],
    [
      "i",
      "um"
    ],
    [
      "sing",
      "le"
    ],
    [
      "ar",
      ","
    ],
    [
      "dra",
      "w"
    ],
    [
      "tri",
      "gg"
    ],
    [
      "trigg",
      "ers"
    ],
    [
      "comp",
      "lete"
    ],
    [
      "auto",
      "mat"
    ],
    [
      "mo",
      "de"
    ],
    [
      "res",
      "pe"
    ],
    [
      "respe",
      "ct"
    ],
    [
      "acti",
      "vit"
    ],
    [
      "cy",
      "cl"
    ],
    [
      "sa",
      "mple"
    ],
    [
      "cri",
      "be"
    ],
    [
      "at",
      "ten"
    ],
    [
      "atten",
      "tion"
    ],
    [
      "anx",
      "iet"
    ],
    [
      "at",
      "ures"
    ],
    [
      "l",
      "aw"
    ],
    [
      "min",
      "er"
    ],
    [
      "ru",
      "le"
    ],
    [
      "cho",
      "ice"
    ],
    [
      "fail",
      "ure"
    ],
    [
      "f",
      "u"
    ],
    [
      "prote",
      "ins"
    ],
    [
      "list",
      "s"
    ],
    [
      "or",
      "y."
    ],
    [
      "se",
      "qu"
    ],
    [
      "n",
      "orm"
    ],
    [
      "norm",
      "al"
    ],
    [
      "no",
      "ise"
    ],
    [
      "0",
      ":"
    ],
    [
      "du",
      "plic"
    ],
    [
      "{",
      "}"
    ],
    [
      "c",
      "d"
    ],
    [
      "(n",
      ","
    ],
    [
      "en",
      "coding"
    ],
    [
      "dict",
      "."
    ],
    [
      "dict",
      "s"
    ],
    [
      "tr",
      "ue"
    ],
    [
      "fil",
      "es"
    ],
    [
      "1",
      ":"
    ],
    [
      "':",
      "'"
    ],
    [
      "0",
      ");"
    ],
    [
      "(x",
      "=>"
    ],
    [
      "%2",
      "=="
    ],
    [
      "(n",
      "){"
    ],
    [
      ";i++",
      ")"
    ],
    [
      "()",
      "=>"
    ],
    [
      "s",
      "){"
    ],
    [
      "n",
      "){"
    ],
    [
      "out",
      ";"
    ],
    [
      "A",
      "B"
    ],
    [
      "=",
      "new"
    ],
    [
      "en",
      "code"
    ],
    [
      "[k]",
      "="
    ],
    [
      ";",
      "}"
    ],
    [
      "ord",
      "ers"
    ],
    [
      "U",
      "P"
    ],
    [
      "sn",
      "ip"
    ],
    [
      "snip",
      "pet"
    ],
    [
      "http",
      "s:"
    ],
    [
      "https:",
      "//"
    ],
    [
      "()",
      "{"
    ],
    [
      "cl",
      "ick"
    ],
    [
      "g",
      "zip"
    ],
    [
      "j",
      "ava"
    ],
    [
      "s",
      "ul"
    ],
    [
      "bacter",
      "ia"
    ],
    [
      "ion",
      ","
    ],
    [
      "id",
      "entify"
    ],
    [
      "log",
      "y"
    ],
    [
      "contin",
      "u"
    ],
    [
      "subst",
      "it"
    ],
    [
      "day",
      "?"
    ],
    [
      "ex",
      "plain"
    ],
    [
      "is",
      "?"
    ],
    [
      "fic",
      "ial"
    ],
    [
      "be",
      "ing"
    ],
    [
      "st",
      "s"
    ],
    [
      "emotion",
      "s"
    ],
    [
      "8",
      ","
    ],
    [
      "c",
      "ted"
    ],
    [
      "work",
      "s"
    ],
    [
      "man",
      "ag"
    ],
    [
      "r",
      "ou"
    ],
    [
      "le",
      "aves"
    ],
    [
      "vis",
      "ual"
    ],
    [
      "system",
      ","
    ],
    [
      "inte",
      "lli"
    ],
    [
      "through",
      "out"
    ],
    [
      "appro",
      "x"
    ],
    [
      "approx",
      "imate"
    ],
    [
      "ab",
      "o"
    ],
    [
      "abo",
      "ve"
    ],
    [
      "Q",
      "u"
    ],
    [
      "st",
      "u"
    ],
    [
      "st",
      "er"
    ],
    [
      "res",
      "our"
    ],
    [
      "pro",
      "ject"
    ],
    [
      "gra",
      "du"
    ],
    [
      "W",
      "ar"
    ],
    [
      "f",
      "li"
    ],
    [
      "contin",
      "ents"
    ],
    [
      "L",
      "is"
    ],
    [
      "consi",
      "dered"
    ],
    [
      "object",
      "s"
    ],
    [
      "Alex",
      "ander"
    ],
    [
      "body",
      "'s"
    ],
    [
      "cy",
      "cle"
    ],
    [
      "Austr",
      "al"
    ],
    [
      "Austral",
      "ia"
    ],
    [
      "formul",
      "a"
    ],
    [
      "An",
      "tar"
    ],
    [
      "Antar",
      "cti"
    ],
    [
      "ev",
      "apor"
    ],
    [
      "li",
      "qu"
    ],
    [
      "liqu",
      "id"
    ],
    [
      "3.",
      "14"
    ],
    [
      "le",
      "ap"
    ],
    [
      "h",
      "am"
    ],
    [
      "et",
      "?"
    ],
    [
      "met",
      "abolis"
    ],
    [
      "H",
      "y"
    ],
    [
      "volcan",
      "o"
    ],
    [
      "ben",
      "ef"
    ],
    [
      "con",
      "centr"
    ],
    [
      "c",
      "c"
    ],
    [
      "speci",
      "es"
    ],
    [
      "d",
      "ent"
    ],
    [
      "St",
      "ates"
    ],
    [
      "pot",
      "assi"
    ],
    [
      "re",
      "new"
    ],
    [
      "Portu",
      "gal"
    ],
    [
      "s",
      "il"
    ],
    [
      "m",
      "ark"
    ],
    [
      "s",
      "ink"
    ],
    [
      "A",
      "ra"
    ],
    [
      "p",
      "it"
    ],
    [
      "V",
      "iet"
    ],
    [
      "Viet",
      "nam"
    ],
    [
      "w",
      "o"
    ],
    [
      "bul",
      "b"
    ],
    [
      "natur",
      "ally"
    ],
    [
      "y",
      "i"
    ],
    [
      "form",
      "s"
    ],
    [
      "ion",
      "?"
    ],
    [
      "ast",
      "er"
    ],
    [
      "schedule",
      ","
    ],
    [
      "nut",
      "s,"
    ],
    [
      "s",
      "ave"
    ],
    [
      "T",
      "ake"
    ],
    [
      "line",
      "."
    ],
    [
      "con",
      "vers"
    ],
    [
      "sk",
      "y"
    ],
    [
      "recogn",
      "ize"
    ],
    [
      "fi",
      "ght"
    ],
    [
      "C",
      "R"
    ],
    [
      "f",
      "light"
    ],
    [
      "w",
      "ave"
    ],
    [
      "Cal",
      "culate"
    ],
    [
      "ne",
      "g"
    ],
    [
      "7",
      "?"
    ],
    [
      "sleep",
      "."
    ],
    [
      "t",
      "u"
    ],
    [
      "distraction",
      "s,"
    ],
    [
      "at",
      "tract"
    ],
    [
      "fiel",
      "d"
    ],
    [
      "mater",
      "ial"
    ],
    [
      "st",
      "y"
    ],
    [
      "p",
      "le"
    ],
    [
      "p",
      "or"
    ],
    [
      "wi",
      "de"
    ],
    [
      "con",
      "tr"
    ],
    [
      "effici",
      "ent"
    ],
    [
      "ban",
      "an"
    ],
    [
      "home",
      "?"
    ],
    [
      "e",
      "as"
    ],
    [
      "hi",
      "story"
    ],
    [
      "redu",
      "cing"
    ],
    [
      "di",
      "vid"
    ],
    [
      "conf",
      "idence"
    ],
    [
      "skill",
      "s,"
    ],
    [
      "comp",
      "are"
    ],
    [
      "P",
      "ers"
    ],
    [
      "Pers",
      "on"
    ],
    [
      "ri",
      "dd"
    ],
    [
      "w",
      "ould"
    ],
    [
      "exp",
      "lo"
    ],
    [
      "brow",
      "ser"
    ],
    [
      "speed",
      "s"
    ],
    [
      "char",
      "ac"
    ],
    [
      "charac",
      "ters"
    ],
    [
      "Che",
      "ck"
    ],
    [
      "th",
      "read"
    ],
    [
      "ab",
      "s"
    ],
    [
      "tion",
      "s,"
    ],
    [
      "qu",
      "ote"
    ],
    [
      "u",
      "ine"
    ],
    [
      "prior",
      "itize"
    ],
    [
      "ence",
      "?"
    ],
    [
      "tim",
      "es."
    ],
    [
      "pow",
      "der"
    ],
    [
      "at",
      "o"
    ],
    [
      "comp",
      "ounds"
    ],
    [
      "protein",
      ","
    ],
    [
      "age",
      ","
    ],
    [
      "const",
      "ell"
    ],
    [
      "mete",
      "or"
    ],
    [
      "exp",
      "ense"
    ],
    [
      "in",
      "vol"
    ],
    [
      "el",
      "s"
    ],
    [
      "er",
      "ror"
    ],
    [
      "fir",
      "m"
    ],
    [
      "lar",
      "ge"
    ],
    [
      "M",
      "er"
    ],
    [
      "di",
      "ent"
    ],
    [
      "ll",
      "s"
    ],
    [
      "ert",
      "ain"
    ],
    [
      "enc",
      "es,"
    ],
    [
      "cal",
      "ori"
    ],
    [
      "g",
      "ned"
    ],
    [
      "emp",
      "athy"
    ],
    [
      "nerv",
      "ous"
    ],
    [
      "min",
      "im"
    ],
    [
      "A",
      "d"
    ],
    [
      "s",
      "me"
    ],
    [
      "sme",
      "ll"
    ],
    [
      "p",
      "ti"
    ],
    [
      "fac",
      "ial"
    ],
    [
      "cop",
      "y"
    ],
    [
      "goal",
      "s,"
    ],
    [
      "v",
      "es,"
    ],
    [
      "8",
      "0"
    ],
    [
      "emp",
      "ty"
    ],
    [
      "f",
      "lex"
    ],
    [
      "range",
      "(n):"
    ],
    [
      "'",
      "'.join("
    ],
    [
      "lower",
      "()"
    ],
    [
      "count",
      "_"
    ],
    [
      "g",
      "cd"
    ],
    [
      "capital",
      "ize"
    ],
    [
      "d.",
      "items"
    ],
    [
      "s",
      "["
    ],
    [
      "_",
      "to_"
    ],
    [
      "(",
      "f"
    ],
    [
      "(",
      "ch"
    ],
    [
      "le",
      "ft"
    ],
    [
      "10",
      "."
    ],
    [
      "list",
      "("
    ],
    [
      "CS",
      "V"
    ],
    [
      "try",
      ":"
    ],
    [
      "he",
      "ap"
    ],
    [
      "()",
      ","
    ],
    [
      "replace",
      "(/"
    ],
    [
      "/",
      "g,"
    ],
    [
      "join",
      "('"
    ],
    [
      "a",
      "+"
    ],
    [
      "ur",
      "l"
    ],
    [
      "U",
      "R"
    ],
    [
      "out.",
      "push"
    ],
    [
      "}",
      ");"
    ],
    [
      "={",
      "};"
    ],
    [
      ":",
      "'"
    ],
    [
      ":",
      "1"
    ],
    [
      ">",
      "</"
    ],
    [
      "A",
      "TE"
    ],
    [
      "A",
      "L"
    ],
    [
      "for(",
      "int"
    ],
    [
      "th",
      "is."
    ],
    [
      "U",
      "S"
    ],
    [
      "b",
      "ins"
    ],
    [
      "xx",
      "xx"
    ],
    [
      "console.log",
      "("
    ],
    [
      "a",
      "["
    ],
    [
      "in",
      "ters"
    ],
    [
      "comb",
      "ine"
    ],
    [
      "hum",
      "ans"
    ],
    [
      "ing",
      "re"
    ],
    [
      "temperature",
      "."
    ],
    [
      "type",
      "=\""
    ],
    [
      "print(",
      "\""
    ],
    [
      "de",
      "pt"
    ],
    [
      "mil",
      "lion"
    ],
    [
      "it",
      "'s"
    ],
    [
      "st",
      "om"
    ],
    [
      "stom",
      "ach"
    ],
    [
      "5",
      "?"
    ],
    [
      "ol",
      "dest"
    ],
    [
      "pop",
      "ul"
    ],
    [
      "ome",
      "g"
    ],
    [
      "omeg",
      "a-"
    ],
    [
      "st",
      "ation"
    ],
    [
      "an",
      "aly"
    ],
    [
      "ill",
      "usion"
    ],
    [
      "g",
      "ut"
    ],
    [
      "substit",
      "ute"
    ],
    [
      "oper",
      "ator"
    ],
    [
      "ance",
      "?"
    ],
    [
      "dat",
      "a,"
    ],
    [
      "sug",
      "gest"
    ],
    [
      "bas",
      "ic"
    ],
    [
      "A",
      "dd"
    ],
    [
      "en",
      "jo"
    ],
    [
      "f",
      "avor"
    ],
    [
      "typ",
      "ically"
    ],
    [
      "mil",
      "es"
    ],
    [
      "number",
      "?"
    ],
    [
      "Wil",
      "li"
    ],
    [
      "Willi",
      "am"
    ],
    [
      "H",
      "e"
    ],
    [
      "se",
      "ason"
    ],
    [
      "sunlight",
      ","
    ],
    [
      "di",
      "vis"
    ],
    [
      "exer",
      "cis"
    ],
    [
      "ir",
      "ing"
    ],
    [
      "rece",
      "ive"
    ],
    [
      "hav",
      "ing"
    ],
    [
      "F",
      "r"
    ],
    [
      "intelli",
      "gen"
    ],
    [
      "t",
      "all"
    ],
    [
      "A",
      "t"
    ],
    [
      "th",
      "is"
    ],
    [
      "cal",
      "cul"
    ],
    [
      "li",
      "ft"
    ],
    [
      "create",
      "d"
    ],
    [
      "F",
      "or"
    ],
    [
      "Japan",
      "?"
    ],
    [
      "energy",
      ","
    ],
    [
      "kilo",
      "meters"
    ],
    [
      "m",
      "as"
    ],
    [
      "cir",
      "cle"
    ],
    [
      "hy",
      "dro"
    ],
    [
      "Austr",
      "ali"
    ],
    [
      "rel",
      "ati"
    ],
    [
      "ang",
      "le"
    ],
    [
      "B",
      "er"
    ],
    [
      "S",
      "o"
    ],
    [
      "e",
      ","
    ],
    [
      "Ar",
      "gent"
    ],
    [
      "id",
      "es"
    ],
    [
      "gu",
      "it"
    ],
    [
      "guit",
      "ar"
    ],
    [
      "life",
      "."
    ],
    [
      "cr",
      "ust"
    ],
    [
      "gas",
      "es"
    ],
    [
      "bir",
      "d?"
    ],
    [
      "and",
      "?"
    ],
    [
      "photosynthesis",
      "?"
    ],
    [
      "S",
      "we"
    ],
    [
      "potassi",
      "um"
    ],
    [
      "P",
      "ol"
    ],
    [
      "cal",
      "ci"
    ],
    [
      "New",
      "ton"
    ],
    [
      "u",
      "s,"
    ],
    [
      "nu",
      "cle"
    ],
    [
      "u",
      "s."
    ],
    [
      "P",
      "e"
    ],
    [
      "hour",
      "s."
    ],
    [
      "i",
      "x"
    ],
    [
      "ne",
      "ar"
    ],
    [
      "on",
      "."
    ],
    [
      "Mor",
      "oc"
    ],
    [
      "Moroc",
      "co"
    ],
    [
      "e",
      "?"
    ],
    [
      "scre",
      "ens"
    ],
    [
      "o",
      "at"
    ],
    [
      "r",
      "inse"
    ],
    [
      "ut",
      "ter"
    ],
    [
      "w",
      "he"
    ],
    [
      "be",
      "low"
    ],
    [
      "regular",
      "ly."
    ],
    [
      "let",
      "s"
    ],
    [
      "ac",
      "c"
    ],
    [
      "ol",
      "ution"
    ],
    [
      "se",
      "lection"
    ],
    [
      "end",
      "s"
    ],
    [
      "ner",
      "ve"
    ],
    [
      "sign",
      "al"
    ],
    [
      "ed",
      "it"
    ],
    [
      "ne",
      "l"
    ],
    [
      "S",
      "ub"
    ],
    [
      "(",
      "5"
    ],
    [
      "hal",
      "f"
    ],
    [
      "even",
      "."
    ],
    [
      "medi",
      "an"
    ],
    [
      "l",
      "it"
    ],
    [
      "vol",
      "ume"
    ],
    [
      "ction",
      "."
    ],
    [
      "c",
      "ould"
    ],
    [
      "no",
      "ck"
    ],
    [
      "to",
      "o"
    ],
    [
      "small",
      ","
    ],
    [
      "tip",
      "s"
    ],
    [
      "List",
      "en"
    ],
    [
      "c",
      "ra"
    ],
    [
      "rele",
      "vant"
    ],
    [
      "perspe",
      "ctive"
    ],
    [
      "an",
      "k"
    ],
    [
      "s",
      "ession"
    ],
    [
      "contr",
      "action"
    ],
    [
      "iti",
      "es."
    ],
    [
      "object",
      "."
    ],
    [
      "small",
      "er"
    ],
    [
      "bir",
      "th"
    ],
    [
      "ber",
      "ries"
    ],
    [
      "med",
      "it"
    ],
    [
      "com",
      "for"
    ],
    [
      "contact",
      ","
    ],
    [
      "pe",
      "pper"
    ],
    [
      "end",
      "ing."
    ],
    [
      "trans",
      "fer"
    ],
    [
      "re",
      "li"
    ],
    [
      "comp",
      "ound"
    ],
    [
      "as",
      "ing"
    ],
    [
      "ris",
      "k"
    ],
    [
      "hol",
      "der"
    ],
    [
      "pos",
      "sible"
    ],
    [
      "i",
      "ou"
    ],
    [
      "iti",
      "es"
    ],
    [
      "ate",
      "d."
    ],
    [
      "co",
      "re"
    ],
    [
      "auth",
      "enti"
    ],
    [
      "b",
      "ur"
    ],
    [
      "C",
      "ho"
    ],
    [
      "one",
      "."
    ],
    [
      "ac",
      "cept"
    ],
    [
      "f",
      "usion"
    ],
    [
      "clear",
      "ly,"
    ],
    [
      "jour",
      "n"
    ],
    [
      "journ",
      "al"
    ],
    [
      "ti",
      "ve"
    ],
    [
      "u",
      "g"
    ],
    [
      "need",
      "s"
    ],
    [
      "in",
      "ch"
    ],
    [
      "p",
      "aper"
    ],
    [
      "l",
      "s"
    ],
    [
      "al",
      "ys"
    ],
    [
      "l",
      "a"
    ],
    [
      "who",
      "le"
    ],
    [
      "rel",
      "ax"
    ],
    [
      "form",
      "."
    ],
    [
      "d",
      "rain"
    ],
    [
      "constell",
      "ation"
    ],
    [
      "c",
      "ite"
    ],
    [
      "lead",
      "er"
    ],
    [
      "bacter",
      "i"
    ],
    [
      "ho",
      "st"
    ],
    [
      "ad",
      "jective"
    ],
    [
      "or",
      ","
    ],
    [
      "ext",
      "re"
    ],
    [
      "extre",
      "me"
    ],
    [
      "sp",
      "in"
    ],
    [
      "suc",
      "cess"
    ],
    [
      "d",
      "ess"
    ],
    [
      "dess",
      "ert"
    ],
    [
      "l",
      "ink"
    ],
    [
      "set",
      "."
    ],
    [
      "V",
      "en"
    ],
    [
      "fam",
      "i"
    ],
    [
      "r",
      "ul"
    ],
    [
      "w",
      "r"
    ],
    [
      "key",
      "word"
    ],
    [
      "ow",
      "er"
    ],
    [
      "te",
      "ach"
    ],
    [
      "sy",
      "mp"
    ],
    [
      "comp",
      "ass"
    ],
    [
      "le",
      "an"
    ],
    [
      "ext",
      "end"
    ],
    [
      "sign",
      "als"
    ],
    [
      "ot",
      "on"
    ],
    [
      "reg",
      "ul"
    ],
    [
      "pat",
      "i"
    ],
    [
      "smo",
      "ke"
    ],
    [
      "r",
      "t"
    ],
    [
      "def",
      "ine"
    ],
    [
      "pl",
      "ast"
    ],
    [
      "dist",
      "in"
    ],
    [
      "or",
      "s."
    ],
    [
      "be",
      "come"
    ],
    [
      "fo",
      "rest"
    ],
    [
      "ity",
      "?"
    ],
    [
      "ma",
      "gn"
    ],
    [
      "ction",
      ","
    ],
    [
      "vide",
      "o"
    ],
    [
      "re",
      "act"
    ],
    [
      "iter",
      "ative"
    ],
    [
      "sum",
      "(1"
    ],
    [
      "e",
      "ve"
    ],
    [
      "b",
      "in"
    ],
    [
      "duplic",
      "ates"
    ],
    [
      "d.",
      "get"
    ],
    [
      "flat",
      "ten"
    ],
    [
      "square",
      "s"
    ],
    [
      "]",
      ");"
    ],
    [
      "k",
      ":"
    ],
    [
      "sh",
      "u"
    ],
    [
      "shu",
      "ff"
    ],
    [
      "n",
      ")"
    ],
    [
      "(",
      "*"
    ],
    [
      "encoding",
      "='"
    ],
    [
      "encoding='",
      "ut"
    ],
    [
      "encoding='ut",
      "f-"
    ],
    [
      "encoding='utf-",
      "8"
    ],
    [
      "encoding='utf-8",
      "')"
    ],
    [
      "a-",
      "z"
    ],
    [
      "date",
      "time"
    ],
    [
      "(",
      "fn"
    ],
    [
      "ca",
      "mel"
    ],
    [
      "4",
      "00"
    ],
    [
      "tri",
      "m"
    ],
    [
      "}",
      ","
    ],
    [
      "ex",
      "tract"
    ],
    [
      "reduce",
      "("
    ],
    [
      "(a,b)",
      "=>"
    ],
    [
      "false",
      ";"
    ],
    [
      "2",
      ";"
    ],
    [
      ";i",
      "<="
    ],
    [
      "i=0",
      ";i<"
    ],
    [
      "(",
      "o"
    ],
    [
      "()",
      ");"
    ],
    [
      "'",
      "0"
    ],
    [
      "floor",
      "("
    ],
    [
      "Math.",
      "random"
    ],
    [
      "Math.random",
      "()"
    ],
    [
      "A",
      "-"
    ],
    [
      "(x",
      ");"
    ],
    [
      "(",
      "v"
    ],
    [
      "d",
      ";"
    ],
    [
      "CO",
      "U"
    ],
    [
      "COU",
      "N"
    ],
    [
      "COUN",
      "T"
    ],
    [
      "O",
      "R"
    ],
    [
      "OR",
      "D"
    ],
    [
      "ORD",
      "ER"
    ],
    [
      "I",
      "M"
    ],
    [
      "N",
      "U"
    ],
    [
      "fun",
      "c"
    ],
    [
      "-",
      ">"
    ],
    [
      "open",
      "('"
    ],
    [
      ".",
      "get"
    ],
    [
      "k,",
      "v"
    ],
    [
      "de",
      "code"
    ],
    [
      "ur",
      "al"
    ],
    [
      "T",
      "AB"
    ],
    [
      "TAB",
      "LE"
    ],
    [
      "id",
      "="
    ],
    [
      "In",
      "ter"
    ],
    [
      "asyn",
      "ci"
    ],
    [
      "9",
      "0"
    ],
    [
      "ingre",
      "dient"
    ],
    [
      "<",
      "input"
    ],
    [
      "<",
      "<"
    ],
    [
      "\",",
      "\""
    ],
    [
      "employees",
      ";"
    ],
    [
      "Sy",
      "stem"
    ],
    [
      "System",
      "."
    ],
    [
      "System.",
      "out."
    ],
    [
      "System.out.",
      "print"
    ],
    [
      "System.out.print",
      "l"
    ],
    [
      "System.out.printl",
      "n"
    ],
    [
      "\"",
      ");"
    ],
    [
      "t",
      "d"
    ],
    [
      "bo",
      "di"
    ],
    [
      "multip",
      "lying"
    ],
    [
      "l",
      "ing"
    ],
    [
      "fru",
      "its"
    ],
    [
      "l",
      "ake"
    ],
    [
      "activit",
      "ies"
    ],
    [
      "print",
      "s"
    ],
    [
      "sul",
      "fur"
    ],
    [
      "inse",
      "ct"
    ],
    [
      "char",
      "g"
    ],
    [
      "3",
      "?"
    ],
    [
      "e",
      "mbrace"
    ],
    [
      "other",
      "s,"
    ],
    [
      "3",
      "8"
    ],
    [
      "ch",
      "ip"
    ],
    [
      "con",
      "du"
    ],
    [
      "pattern",
      "s,"
    ],
    [
      "ad",
      "v"
    ],
    [
      "2",
      "1"
    ],
    [
      "al",
      "cohol"
    ],
    [
      "function",
      ":"
    ],
    [
      "don",
      "'t"
    ],
    [
      "sci",
      "enti"
    ],
    [
      "way",
      "s"
    ],
    [
      "proble",
      "ms"
    ],
    [
      "sub",
      "ject"
    ],
    [
      "col",
      "ors"
    ],
    [
      "photosynthesis",
      "."
    ],
    [
      "P",
      "ho"
    ],
    [
      "gl",
      "u"
    ],
    [
      "H",
      "am"
    ],
    [
      "R",
      "ome"
    ],
    [
      "ch",
      "lor"
    ],
    [
      "g",
      "lo"
    ],
    [
      "planet",
      "?"
    ],
    [
      "7",
      ","
    ],
    [
      "recogn",
      "ition"
    ],
    [
      "-",
      "9"
    ],
    [
      "allow",
      "ing"
    ],
    [
      "requ",
      "iring"
    ],
    [
      "M",
      "ount"
    ],
    [
      "E",
      "ve"
    ],
    [
      "Eve",
      "rest"
    ],
    [
      "approximate",
      "ly"
    ],
    [
      "hi",
      "g"
    ],
    [
      "hig",
      "he"
    ],
    [
      "highe",
      "st"
    ],
    [
      "past",
      "a"
    ],
    [
      "f",
      "r"
    ],
    [
      "si",
      "mp"
    ],
    [
      "st",
      "ates"
    ],
    [
      "It",
      "'s"
    ],
    [
      "d",
      "am"
    ],
    [
      "si",
      "st"
    ],
    [
      "en",
      "cy"
    ],
    [
      "ai",
      "k"
    ],
    [
      "se",
      "con"
    ],
    [
      "secon",
      "d."
    ],
    [
      "resi",
      "st"
    ],
    [
      "ex",
      "ce"
    ],
    [
      "exce",
      "ed"
    ],
    [
      "ic",
      "s"
    ],
    [
      "produ",
      "cing"
    ],
    [
      "se",
      "ven"
    ],
    [
      "M",
      "on"
    ],
    [
      "boil",
      "ing"
    ],
    [
      "Canad",
      "a?"
    ],
    [
      "Canad",
      "a"
    ],
    [
      "t",
      "t"
    ],
    [
      "g",
      "old"
    ],
    [
      "gal",
      "ax"
    ],
    [
      "B",
      "r"
    ],
    [
      "Sh",
      "akes"
    ],
    [
      "Shakes",
      "pe"
    ],
    [
      "Shakespe",
      "are"
    ],
    [
      "e",
      "ight"
    ],
    [
      "Al",
      "ber"
    ],
    [
      "Alber",
      "t"
    ],
    [
      "E",
      "inste"
    ],
    [
      "Einste",
      "in"
    ],
    [
      "organis",
      "ms"
    ],
    [
      "It",
      "al"
    ],
    [
      "sp",
      "ok"
    ],
    [
      "spok",
      "en"
    ],
    [
      "Des",
      "ert"
    ],
    [
      "Ger",
      "man"
    ],
    [
      "G",
      "e"
    ],
    [
      "Ch",
      "ar"
    ],
    [
      "N",
      "ight"
    ],
    [
      "ne",
      "are"
    ],
    [
      "neare",
      "st"
    ],
    [
      "es",
      "cap"
    ],
    [
      "Russi",
      "a"
    ],
    [
      "ai",
      "ro"
    ],
    [
      "in",
      "vent"
    ],
    [
      "in",
      "a?"
    ],
    [
      "en",
      "os"
    ],
    [
      "G",
      "re"
    ],
    [
      "Gre",
      "en"
    ],
    [
      "T",
      "ur"
    ],
    [
      "li",
      "ver"
    ],
    [
      "ther",
      "n"
    ],
    [
      "Antarcti",
      "ca"
    ],
    [
      "Th",
      "ail"
    ],
    [
      "12",
      "?"
    ],
    [
      "S",
      "to"
    ],
    [
      "renew",
      "able"
    ],
    [
      "i",
      "er"
    ],
    [
      "at",
      "."
    ],
    [
      "v",
      "es."
    ],
    [
      "calci",
      "um"
    ],
    [
      "Aust",
      "ri"
    ],
    [
      "S",
      "at"
    ],
    [
      "Sat",
      "urn"
    ],
    [
      "sp",
      "id"
    ],
    [
      "h",
      "."
    ],
    [
      "Ã",
      "©"
    ],
    [
      "comp",
      "ose"
    ],
    [
      "h",
      "is"
    ],
    [
      "P",
      "hi"
    ],
    [
      "Phi",
      "li"
    ],
    [
      "Phili",
      "pp"
    ],
    [
      "tect",
      "on"
    ],
    [
      "4",
      "8"
    ],
    [
      "f",
      "ive"
    ],
    [
      "om",
      "an"
    ],
    [
      "I",
      "s"
    ],
    [
      "co",
      "met"
    ],
    [
      "vine",
      "gar"
    ],
    [
      "th",
      "or"
    ],
    [
      "thor",
      "ough"
    ],
    [
      "meal",
      "s,"
    ],
    [
      "rout",
      "ine?"
    ],
    [
      "D",
      "o"
    ],
    [
      "safe",
      "ly?"
    ],
    [
      "f",
      "in"
    ],
    [
      "sm",
      "art"
    ],
    [
      "cond",
      "ens"
    ],
    [
      "electron",
      "s"
    ],
    [
      "boundari",
      "es,"
    ],
    [
      "bat",
      "ter"
    ],
    [
      "cre",
      "ates"
    ],
    [
      "vi",
      "a"
    ],
    [
      "p",
      "y"
    ],
    [
      "green",
      "house"
    ],
    [
      "tr",
      "ap"
    ],
    [
      "bot",
      "to"
    ],
    [
      "m",
      ","
    ],
    [
      "I",
      "S"
    ],
    [
      "P",
      "R"
    ],
    [
      "bo",
      "x"
    ],
    [
      "ol",
      "ve"
    ],
    [
      "meter",
      "s."
    ],
    [
      ")",
      "/"
    ],
    [
      "100",
      "0"
    ],
    [
      "Let",
      "tu"
    ],
    [
      "s",
      "cho"
    ],
    [
      "scho",
      "ol"
    ],
    [
      "bri",
      "gh"
    ],
    [
      "ad",
      "vice"
    ],
    [
      "re",
      "ward"
    ],
    [
      "ans",
      "wer"
    ],
    [
      "con",
      "cise"
    ],
    [
      "B",
      "re"
    ],
    [
      "comp",
      "re"
    ],
    [
      "compre",
      "h"
    ],
    [
      "p",
      "a"
    ],
    [
      "summ",
      "ari"
    ],
    [
      "dev",
      "ic"
    ],
    [
      "I",
      "ce"
    ],
    [
      "structure",
      "."
    ],
    [
      "happ",
      "ens"
    ],
    [
      "gre",
      "at"
    ],
    [
      "work",
      "."
    ],
    [
      "d",
      "ream"
    ],
    [
      "z",
      "y"
    ],
    [
      "t",
      "ch"
    ],
    [
      "N",
      "o"
    ],
    [
      "text",
      "."
    ],
    [
      "in",
      "fer"
    ],
    [
      "ction",
      "s"
    ],
    [
      "dat",
      "ab"
    ],
    [
      "de",
      "m"
    ],
    [
      "dem",
      "and"
    ],
    [
      "body",
      ","
    ],
    [
      "imp",
      "act"
    ],
    [
      "stor",
      "y."
    ],
    [
      "light",
      ","
    ],
    [
      "i",
      "es."
    ],
    [
      "ru",
      "pt"
    ],
    [
      "r",
      "ati"
    ],
    [
      "oil",
      ","
    ],
    [
      "E",
      "mp"
    ],
    [
      "ti",
      "ght"
    ],
    [
      "ac",
      "count"
    ],
    [
      "yourself",
      ","
    ],
    [
      "s",
      ";"
    ],
    [
      "supp",
      "ly"
    ],
    [
      "qu",
      "al"
    ],
    [
      "flu",
      "id"
    ],
    [
      "l",
      "ung"
    ],
    [
      "sw",
      "itch"
    ],
    [
      "achieve",
      "ment"
    ],
    [
      "Jo",
      "h"
    ],
    [
      "M",
      "ari"
    ],
    [
      "ie",
      "st"
    ],
    [
      "mix",
      "ed"
    ],
    [
      "ev",
      "idence"
    ],
    [
      "slight",
      "ly"
    ],
    [
      "m",
      "en"
    ],
    [
      "O",
      "n"
    ],
    [
      "Cho",
      "ose"
    ],
    [
      "over",
      "come"
    ],
    [
      "lo",
      "se"
    ],
    [
      "exercise",
      ","
    ],
    [
      "run",
      "ning"
    ],
    [
      "bu",
      "g"
    ],
    [
      "doc",
      "ument"
    ],
    [
      "op",
      "port"
    ],
    [
      "opport",
      "un"
    ],
    [
      "ne",
      "xt"
    ],
    [
      "se",
      "en"
    ],
    [
      "bility",
      ","
    ],
    [
      "gen",
      "uine"
    ],
    [
      "C",
      "ap"
    ],
    [
      "are",
      "as"
    ],
    [
      "de",
      "ad"
    ],
    [
      "set",
      "back"
    ],
    [
      "av",
      "ing"
    ],
    [
      "b",
      "urn"
    ],
    [
      "ion",
      "s"
    ],
    [
      "yi",
      "el"
    ],
    [
      "st",
      "ill"
    ],
    [
      "a",
      "im"
    ],
    [
      "I",
      "d"
    ],
    [
      "ap",
      "plic"
    ],
    [
      "referen",
      "ce"
    ],
    [
      "j",
      "ud"
    ],
    [
      "g",
      "rain"
    ],
    [
      "P",
      "ick"
    ],
    [
      "re",
      "cover"
    ],
    [
      "prevent",
      "ing"
    ],
    [
      "do",
      "or"
    ],
    [
      "par",
      "a"
    ],
    [
      "harm",
      "ful"
    ],
    [
      "p",
      "H"
    ],
    [
      "log",
      "ical"
    ],
    [
      "m",
      "s."
    ],
    [
      "or",
      "y?"
    ],
    [
      "exp",
      "and"
    ],
    [
      "back",
      "ground"
    ],
    [
      "sh",
      "ift"
    ],
    [
      "ali",
      "gn"
    ],
    [
      "de",
      "d."
    ],
    [
      "ne",
      "ct"
    ],
    [
      "sw",
      "ap"
    ],
    [
      "eng",
      "ine"
    ],
    [
      "Mer",
      "cur"
    ],
    [
      "col",
      "dest"
    ],
    [
      "pi",
      "e"
    ],
    [
      "en",
      "ces"
    ],
    [
      "writ",
      "ing?"
    ],
    [
      "Re",
      "ad"
    ],
    [
      "fix",
      "ed"
    ],
    [
      "de",
      "b"
    ],
    [
      "habit",
      "s?"
    ],
    [
      "appro",
      "pri"
    ],
    [
      "appropri",
      "ate"
    ],
    [
      "feel",
      "ings"
    ],
    [
      "sp",
      "ort"
    ],
    [
      "he",
      "d"
    ],
    [
      "ment",
      "al"
    ],
    [
      "A",
      "PI"
    ],
    [
      "add",
      "s"
    ],
    [
      "ex",
      "e"
    ],
    [
      "rel",
      "ated"
    ],
    [
      "val",
      "id"
    ],
    [
      "custom",
      "ers"
    ],
    [
      "s",
      "l"
    ],
    [
      "cal",
      "end"
    ],
    [
      "t",
      "akes"
    ],
    [
      "vitam",
      "ins"
    ],
    [
      "m",
      "ir"
    ],
    [
      "ch",
      "ain"
    ],
    [
      "de",
      "lay"
    ],
    [
      "d",
      "ress"
    ],
    [
      "anxiet",
      "y"
    ],
    [
      "elect",
      "ro"
    ],
    [
      "Earth",
      ","
    ],
    [
      "date",
      "."
    ],
    [
      "sit",
      "u"
    ],
    [
      "L",
      "ight"
    ],
    [
      "th",
      "in"
    ],
    [
      "bu",
      "b"
    ],
    [
      "ra",
      "ise"
    ],
    [
      "et",
      "te"
    ],
    [
      "value",
      "."
    ],
    [
      "wor",
      "th"
    ],
    [
      "bon",
      "ac"
    ],
    [
      "bonac",
      "ci"
    ],
    [
      "k",
      "ing"
    ],
    [
      "str",
      "ate"
    ],
    [
      "z",
      "ed"
    ],
    [
      "pres",
      "er"
    ],
    [
      "flex",
      "i"
    ],
    [
      "safe",
      "ly"
    ],
    [
      ".",
      "append"
    ],
    [
      "[:",
      ":"
    ],
    [
      "v",
      "ow"
    ],
    [
      "(num",
      "s)"
    ],
    [
      "se",
      "en."
    ],
    [
      "dict",
      "("
    ],
    [
      "key",
      "="
    ],
    [
      "list",
      "s."
    ],
    [
      "in",
      "vert"
    ],
    [
      "len",
      "(lst)"
    ],
    [
      "fi",
      "b"
    ],
    [
      "b",
      "))"
    ],
    [
      "shuff",
      "le"
    ],
    [
      "char",
      "acter"
    ],
    [
      "number",
      "."
    ],
    [
      "n",
      ","
    ],
    [
      "(ch",
      ")"
    ],
    [
      "json.",
      "load"
    ],
    [
      "range(",
      "1,"
    ],
    [
      "key",
      "s."
    ],
    [
      "None",
      "):"
    ],
    [
      "d",
      "p"
    ],
    [
      "+1",
      "):"
    ],
    [
      "sq",
      "rt"
    ],
    [
      "mul",
      "ti"
    ],
    [
      "heap",
      "q"
    ],
    [
      "pl",
      "es"
    ],
    [
      "[0]",
      "."
    ],
    [
      "(c",
      ")"
    ],
    [
      "br",
      "ac"
    ],
    [
      "join('",
      "');"
    ],
    [
      "...",
      "arr"
    ],
    [
      "arr.",
      "filter"
    ],
    [
      "n",
      ";i++)"
    ],
    [
      ";i++",
      "){"
    ],
    [
      "(",
      "..."
    ],
    [
      "Object",
      "."
    ],
    [
      "UR",
      "L"
    ],
    [
      "con",
      "cat"
    ],
    [
      "slice",
      "("
    ],
    [
      "array",
      "s."
    ],
    [
      "'",
      ";"
    ],
    [
      "i",
      ")=>"
    ],
    [
      "x",
      ";"
    ],
    [
      "second",
      "s"
    ],
    [
      "b",
      "order"
    ],
    [
      "example",
      "."
    ],
    [
      "de",
      "lete"
    ],
    [
      "a",
      "){"
    ],
    [
      "a",
      "="
    ],
    [
      "C",
      "++"
    ],
    [
      "s",
      "cript"
    ],
    [
      "distin",
      "ct"
    ],
    [
      "l",
      "ass"
    ],
    [
      "E",
      "T"
    ],
    [
      "aw",
      "ait"
    ],
    [
      "L",
      "L"
    ],
    [
      "has",
      "h"
    ],
    [
      "ur",
      "lli"
    ],
    [
      "exist",
      "s"
    ],
    [
      "IN",
      "T"
    ],
    [
      "'",
      "?"
    ],
    [
      "{",
      "name"
    ],
    [
      "p",
      "and"
    ],
    [
      "con",
      "fig"
    ],
    [
      "aw",
      "are"
    ],
    [
      "Wh",
      "ich"
    ],
    [
      "cover",
      "ing"
    ],
    [
      "n",
      "'t"
    ],
    [
      "can",
      "'t"
    ],
    [
      "\"",
      ")"
    ],
    [
      "be",
      "d"
    ],
    [
      "nums",
      "=["
    ],
    [
      "f",
      "(\""
    ],
    [
      "\"",
      ":"
    ],
    [
      "bre",
      "ed"
    ],
    [
      "1",
      "7"
    ],
    [
      "mindful",
      "ness,"
    ],
    [
      "mor",
      "al"
    ],
    [
      "c",
      "ertain"
    ],
    [
      "e",
      "arth"
    ],
    [
      "h",
      "oney"
    ],
    [
      "f",
      "inger"
    ],
    [
      "trigger",
      "ing"
    ],
    [
      "radi",
      "o"
    ],
    [
      "ei",
      "ther"
    ],
    [
      "Â°",
      "C"
    ],
    [
      "G",
      "P"
    ],
    [
      "GP",
      "S"
    ],
    [
      "Bl",
      "ue"
    ],
    [
      "snack",
      "?"
    ],
    [
      "cr",
      "it"
    ],
    [
      "ir",
      "rit"
    ],
    [
      "no",
      "se"
    ],
    [
      "algorith",
      "ms"
    ],
    [
      "omega-",
      "3"
    ],
    [
      "exist",
      "ing"
    ],
    [
      "progres",
      "s,"
    ],
    [
      "digest",
      "ive"
    ],
    [
      "re",
      "cept"
    ],
    [
      "recept",
      "ors"
    ],
    [
      "grow",
      "ing"
    ],
    [
      "s",
      "atur"
    ],
    [
      "satur",
      "ated"
    ],
    [
      "antioxid",
      "ants"
    ],
    [
      "source",
      "?"
    ],
    [
      "magn",
      "es"
    ],
    [
      "magnes",
      "ium"
    ],
    [
      "antioxid",
      "ant"
    ],
    [
      "my_",
      "list"
    ],
    [
      "I",
      "'"
    ],
    [
      "well",
      ","
    ],
    [
      "Be",
      "cause"
    ],
    [
      "on",
      "s"
    ],
    [
      "lo",
      "s"
    ],
    [
      "beli",
      "ef"
    ],
    [
      "con",
      "cept"
    ],
    [
      "c",
      "ult"
    ],
    [
      "Pho",
      "tosynthesis"
    ],
    [
      "glu",
      "co"
    ],
    [
      "gluco",
      "se"
    ],
    [
      "op",
      "hy"
    ],
    [
      "ophy",
      "ll"
    ],
    [
      "orb",
      "its"
    ],
    [
      "g",
      "reate"
    ],
    [
      "greate",
      "st"
    ],
    [
      "le",
      "ast"
    ],
    [
      "hydr",
      "ated,"
    ],
    [
      "writ",
      "er"
    ],
    [
      "self",
      "."
    ],
    [
      "dev",
      "ices"
    ],
    [
      "col",
      "s"
    ],
    [
      "u",
      "li"
    ],
    [
      "compu",
      "ters"
    ],
    [
      "d",
      "inner"
    ],
    [
      "Th",
      "at"
    ],
    [
      "vegetabl",
      "es,"
    ],
    [
      "chick",
      "en"
    ],
    [
      "food",
      "s"
    ],
    [
      "s",
      "cal"
    ],
    [
      "ent",
      "al"
    ],
    [
      "uni",
      "verse"
    ],
    [
      "b",
      "ro"
    ],
    [
      "be",
      "gin"
    ],
    [
      "friend",
      "ly"
    ],
    [
      "gradu",
      "ally"
    ],
    [
      "air",
      "plan"
    ],
    [
      "w",
      "ing"
    ],
    [
      "fli",
      "es"
    ],
    [
      "non",
      "-"
    ],
    [
      "Mon",
      "a"
    ],
    [
      "Le",
      "on"
    ],
    [
      "Leon",
      "ar"
    ],
    [
      "Leonar",
      "do"
    ],
    [
      "V",
      "inci"
    ],
    [
      "Celsi",
      "us"
    ],
    [
      "Ri",
      "ver"
    ],
    [
      "sour",
      "ces"
    ],
    [
      "to",
      "ward"
    ],
    [
      "si",
      "des"
    ],
    [
      "he",
      "x"
    ],
    [
      "ag",
      "on"
    ],
    [
      "P",
      "ac"
    ],
    [
      "Pac",
      "ific"
    ],
    [
      "Ã",
      "­"
    ],
    [
      "mammal",
      "?"
    ],
    [
      "turn",
      "s"
    ],
    [
      "S",
      "pain"
    ],
    [
      "animal",
      "."
    ],
    [
      "v",
      "an"
    ],
    [
      "year",
      "?"
    ],
    [
      "3",
      "6"
    ],
    [
      "light",
      "."
    ],
    [
      "it",
      "ro"
    ],
    [
      "itro",
      "gen"
    ],
    [
      "7",
      "8"
    ],
    [
      "Pl",
      "ants"
    ],
    [
      "Egypt",
      "?"
    ],
    [
      "cred",
      "ited"
    ],
    [
      "bu",
      "ted"
    ],
    [
      "har",
      "dest"
    ],
    [
      "gravit",
      "ational"
    ],
    [
      "M",
      "ars"
    ],
    [
      "su",
      "stain"
    ],
    [
      "Kingdo",
      "m"
    ],
    [
      "Tur",
      "key"
    ],
    [
      "eru",
      "pt"
    ],
    [
      "In",
      "don"
    ],
    [
      "Indon",
      "es"
    ],
    [
      "period",
      "ic"
    ],
    [
      "table",
      "?"
    ],
    [
      "c",
      "arry"
    ],
    [
      "ser",
      "v"
    ],
    [
      "Niger",
      "ia"
    ],
    [
      "K",
      "en"
    ],
    [
      "Ken",
      "y"
    ],
    [
      "mo",
      "s"
    ],
    [
      "B",
      "ang"
    ],
    [
      "play",
      "ers"
    ],
    [
      "sh",
      "ark"
    ],
    [
      "Swe",
      "den"
    ],
    [
      "Nor",
      "way"
    ],
    [
      "K",
      "ore"
    ],
    [
      "al",
      "ph"
    ],
    [
      "alph",
      "a"
    ],
    [
      "g",
      "."
    ],
    [
      "w",
      "it"
    ],
    [
      "S",
      "pan"
    ],
    [
      "Span",
      "ish"
    ],
    [
      "A",
      "ll"
    ],
    [
      "F",
      "in"
    ],
    [
      "f",
      "ra"
    ],
    [
      "is",
      "ol"
    ],
    [
      "Z",
      "e"
    ],
    [
      "S",
      "audi"
    ],
    [
      "Ara",
      "b"
    ],
    [
      "preci",
      "pit"
    ],
    [
      "M",
      "an"
    ],
    [
      "tecton",
      "ic"
    ],
    [
      "ra",
      "g"
    ],
    [
      "B",
      "el"
    ],
    [
      "Bel",
      "gi"
    ],
    [
      "ad",
      "."
    ],
    [
      "in",
      "c"
    ],
    [
      "k",
      "ra"
    ],
    [
      "ic",
      "y"
    ],
    [
      "he",
      "li"
    ],
    [
      "form",
      "ing"
    ],
    [
      "t",
      "a"
    ],
    [
      "M",
      "e"
    ],
    [
      "city",
      "?"
    ],
    [
      "aster",
      "oid"
    ],
    [
      "up",
      ","
    ],
    [
      "gl",
      "ass"
    ],
    [
      "de",
      "ter"
    ],
    [
      "gent",
      ","
    ],
    [
      "ve",
      "g"
    ],
    [
      "veg",
      "gi"
    ],
    [
      "p",
      "ing"
    ],
    [
      "organ",
      "ize"
    ],
    [
      "cl",
      "utter"
    ],
    [
      "c",
      "ate"
    ],
    [
      "mic",
      "row"
    ],
    [
      "microw",
      "ave"
    ],
    [
      "fe",
      "w"
    ],
    [
      "out",
      "side"
    ],
    [
      "air",
      ","
    ],
    [
      "C",
      "ur"
    ],
    [
      "to",
      "oth"
    ],
    [
      "name",
      ","
    ],
    [
      "drop",
      "lets"
    ],
    [
      "ne",
      "ut"
    ],
    [
      "ev",
      "olution"
    ],
    [
      "meas",
      "ures"
    ],
    [
      "effect",
      "."
    ],
    [
      "atmosphere",
      ","
    ],
    [
      "per",
      "se"
    ],
    [
      "in",
      "ve"
    ],
    [
      "inve",
      "st"
    ],
    [
      "The",
      "y"
    ],
    [
      "cel",
      "er"
    ],
    [
      "18",
      "0"
    ],
    [
      "8",
      "1."
    ],
    [
      "27",
      "."
    ],
    [
      "neg",
      "ative"
    ],
    [
      "perfe",
      "ct"
    ],
    [
      "sci",
      "ence"
    ],
    [
      "ne",
      "ver"
    ],
    [
      "b",
      "ak"
    ],
    [
      "read",
      "ing"
    ],
    [
      "k",
      "nock"
    ],
    [
      "lit",
      "tle"
    ],
    [
      "ter",
      "."
    ],
    [
      "h",
      "ad"
    ],
    [
      "enc",
      "y."
    ],
    [
      "ear",
      "ch"
    ],
    [
      "active",
      "ly,"
    ],
    [
      "time",
      "?"
    ],
    [
      "ef",
      "for"
    ],
    [
      "he",
      "ar"
    ],
    [
      "l",
      "ou"
    ],
    [
      "k",
      "id"
    ],
    [
      "rain",
      ","
    ],
    [
      "cli",
      "p"
    ],
    [
      "sh",
      "ad"
    ],
    [
      "tra",
      "il"
    ],
    [
      "ren",
      "ch"
    ],
    [
      "a",
      "de"
    ],
    [
      "affe",
      "ct"
    ],
    [
      "effect",
      "?"
    ],
    [
      "place",
      ","
    ],
    [
      "fe",
      "wer"
    ],
    [
      "pe",
      "ak"
    ],
    [
      "in",
      "stru"
    ],
    [
      "datab",
      "ase"
    ],
    [
      "pro",
      "f"
    ],
    [
      "gre",
      "et"
    ],
    [
      "produ",
      "ctive"
    ],
    [
      "as",
      "sign"
    ],
    [
      "item",
      "s,"
    ],
    [
      "h",
      "or"
    ],
    [
      "no",
      "te"
    ],
    [
      "lo",
      "cal"
    ],
    [
      "rati",
      "o"
    ],
    [
      "t",
      "end"
    ],
    [
      "set",
      "?"
    ],
    [
      "eas",
      "i"
    ],
    [
      "ca",
      "do"
    ],
    [
      "ref",
      "ri"
    ],
    [
      "refri",
      "ger"
    ],
    [
      "exp",
      "ens"
    ],
    [
      "in",
      "it"
    ],
    [
      "in",
      "fl"
    ],
    [
      "por",
      "tion"
    ],
    [
      "bon",
      "d"
    ],
    [
      "or",
      "?"
    ],
    [
      "p",
      "ump"
    ],
    [
      "fe",
      "m"
    ],
    [
      "loc",
      "ated"
    ],
    [
      "nutri",
      "ent"
    ],
    [
      "noti",
      "ce"
    ],
    [
      "D",
      "is"
    ],
    [
      "c",
      "us"
    ],
    [
      "i",
      "gn"
    ],
    [
      "ridd",
      "le"
    ],
    [
      "can",
      "not"
    ],
    [
      "b",
      "us"
    ],
    [
      "cor",
      "al"
    ],
    [
      "r",
      "al"
    ],
    [
      "A",
      "c"
    ],
    [
      "sp",
      "ot"
    ],
    [
      "authenti",
      "c"
    ],
    [
      "on",
      "to"
    ],
    [
      "tri",
      "p"
    ],
    [
      "dai",
      "ly,"
    ],
    [
      "v",
      "oc"
    ],
    [
      "voc",
      "ab"
    ],
    [
      "as",
      "es,"
    ],
    [
      "m",
      "ist"
    ],
    [
      "Bu",
      "ild"
    ],
    [
      "re",
      "."
    ],
    [
      "co",
      "st"
    ],
    [
      "sho",
      "ck"
    ],
    [
      "ab",
      "or"
    ],
    [
      "ag",
      "ain"
    ],
    [
      "si",
      "ght"
    ],
    [
      "al",
      "ert"
    ],
    [
      "bu",
      "f"
    ],
    [
      "te",
      "ll"
    ],
    [
      "M",
      "ix"
    ],
    [
      "g",
      "ift"
    ],
    [
      "better",
      "?"
    ],
    [
      "int",
      "ro"
    ],
    [
      "an",
      "alys"
    ],
    [
      "nutri",
      "ents"
    ],
    [
      "function",
      "s."
    ],
    [
      "s",
      "at"
    ],
    [
      "sat",
      "is"
    ],
    [
      "plant",
      "?"
    ],
    [
      "star",
      "s"
    ],
    [
      "pass",
      "es"
    ],
    [
      "para",
      "graph"
    ],
    [
      "vir",
      "us"
    ],
    [
      "invol",
      "ves"
    ],
    [
      "extreme",
      "ly"
    ],
    [
      "ar",
      "?"
    ],
    [
      "rapid",
      "ly"
    ],
    [
      "mon",
      "th"
    ],
    [
      "light",
      "s"
    ],
    [
      "pare",
      "n"
    ],
    [
      "language",
      ","
    ],
    [
      "stor",
      "age"
    ],
    [
      "i",
      "mag"
    ],
    [
      "wo",
      "od"
    ],
    [
      "Ven",
      "us"
    ],
    [
      "th",
      "ick"
    ],
    [
      "sh",
      "ap"
    ],
    [
      "so",
      "ap"
    ],
    [
      "mo",
      "vi"
    ],
    [
      "together",
      "."
    ],
    [
      "ver",
      "y"
    ],
    [
      "is",
      "ing"
    ],
    [
      "cont",
      "ent,"
    ],
    [
      "wr",
      "ong"
    ],
    [
      "mater",
      "i"
    ],
    [
      "materi",
      "als"
    ],
    [
      "t",
      "reat"
    ],
    [
      "s",
      "can"
    ],
    [
      "i",
      "an"
    ],
    [
      "le",
      "f"
    ],
    [
      "lef",
      "to"
    ],
    [
      "n",
      "av"
    ],
    [
      "nav",
      "ig"
    ],
    [
      "item",
      "s."
    ],
    [
      "pot",
      "enti"
    ],
    [
      "ness",
      "?"
    ],
    [
      "ue",
      "st"
    ],
    [
      "co",
      "ll"
    ],
    [
      "T",
      "i"
    ],
    [
      "Ti",
      "me"
    ],
    [
      "atch",
      "ing"
    ],
    [
      "block",
      "s"
    ],
    [
      "re",
      "call"
    ],
    [
      "se",
      "ction"
    ],
    [
      "trans",
      "mit"
    ],
    [
      "al",
      "arm"
    ],
    [
      "comm",
      "it"
    ],
    [
      "m",
      "ou"
    ],
    [
      "mou",
      "th"
    ],
    [
      "ol",
      "d."
    ],
    [
      "ist",
      "ic"
    ],
    [
      "dis",
      "ci"
    ],
    [
      "disci",
      "pl"
    ],
    [
      "feedback",
      ","
    ],
    [
      "over",
      "night"
    ],
    [
      "mil",
      "k,"
    ],
    [
      "yogur",
      "t,"
    ],
    [
      "z",
      "en"
    ],
    [
      "a",
      "ut"
    ],
    [
      "ste",
      "am"
    ],
    [
      "ex",
      "pe"
    ],
    [
      "car",
      "bs"
    ],
    [
      "or",
      "."
    ],
    [
      "B",
      "y"
    ],
    [
      "perspe",
      "cti"
    ],
    [
      "win",
      "s,"
    ],
    [
      "de",
      "ci"
    ],
    [
      "il",
      "le"
    ],
    [
      "ex",
      "po"
    ],
    [
      "age",
      "."
    ],
    [
      "pho",
      "to"
    ],
    [
      "Fi",
      "bonacci"
    ],
    [
      "n",
      "ature"
    ],
    [
      "gene",
      "tic"
    ],
    [
      "w",
      "ise"
    ],
    [
      "we",
      "l"
    ],
    [
      "p",
      "ace"
    ],
    [
      "head",
      "."
    ],
    [
      "sh",
      "or"
    ],
    [
      "rele",
      "ases"
    ],
    [
      "sol",
      "ving"
    ],
    [
      "redu",
      "ces"
    ],
    [
      "iterative",
      "ly."
    ],
    [
      "recur",
      "sive"
    ],
    [
      "[::",
      "-1]"
    ],
    [
      "c.",
      "is"
    ],
    [
      "'",
      "a"
    ],
    [
      "_",
      "list"
    ],
    [
      "max",
      "_"
    ],
    [
      "2",
      "]"
    ],
    [
      "len",
      "(a)"
    ],
    [
      "bin",
      "ary"
    ],
    [
      "l",
      "c"
    ],
    [
      "_",
      "case"
    ],
    [
      "out.",
      "extend"
    ],
    [
      "lower",
      "case"
    ],
    [
      "sorted",
      "("
    ],
    [
      "set",
      "("
    ],
    [
      "s.split",
      "('"
    ],
    [
      "n",
      "]"
    ],
    [
      "(d",
      "):"
    ],
    [
      "k",
      "):"
    ],
    [
      "_",
      "n"
    ],
    [
      "))",
      ")"
    ],
    [
      "(",
      "str"
    ],
    [
      "c",
      "ending."
    ],
    [
      "(",
      "m"
    ],
    [
      "int",
      "("
    ],
    [
      "(p",
      ","
    ],
    [
      "os.path.",
      "join"
    ],
    [
      "(path",
      "):"
    ],
    [
      "du",
      "mp"
    ],
    [
      "to",
      "day"
    ],
    [
      "Y",
      "Y"
    ],
    [
      "arg",
      "s,"
    ],
    [
      "**",
      "k"
    ],
    [
      "**k",
      "w"
    ],
    [
      "**kw",
      "arg"
    ],
    [
      "[]",
      ")."
    ],
    [
      "{",
      "k:"
    ],
    [
      "perm",
      "ut"
    ],
    [
      "permut",
      "ations"
    ],
    [
      "bo",
      "o"
    ],
    [
      "direct",
      "ory."
    ],
    [
      "pop",
      "()"
    ],
    [
      "0",
      "]"
    ],
    [
      "(",
      "year"
    ],
    [
      "-",
      "lo"
    ],
    [
      "direct",
      "ory"
    ],
    [
      "(r",
      "ows"
    ],
    [
      "E",
      "r"
    ],
    [
      "Er",
      "ror"
    ],
    [
      "ren",
      "ame"
    ],
    [
      "de",
      "g"
    ],
    [
      "ra",
      "d"
    ],
    [
      "{",
      "'"
    ],
    [
      "wrap",
      "per"
    ],
    [
      "arg",
      "s"
    ],
    [
      "pair",
      "s."
    ],
    [
      "p",
      "adding"
    ],
    [
      "P",
      "al"
    ],
    [
      "=0",
      ")"
    ],
    [
      "t",
      ";"
    ],
    [
      "=>",
      "{"
    ],
    [
      "t",
      "="
    ],
    [
      "(",
      "()=>"
    ],
    [
      "w",
      "ait"
    ],
    [
      "(",
      "2,"
    ],
    [
      "if(",
      "!"
    ],
    [
      "floor(",
      "Math.random()"
    ],
    [
      "Arra",
      "y."
    ],
    [
      "ke",
      "y."
    ],
    [
      "(s",
      ");"
    ],
    [
      "on",
      "ent"
    ],
    [
      "(i",
      ");"
    ],
    [
      "(s",
      "/"
    ],
    [
      "slice(",
      "0,"
    ],
    [
      "read",
      "able"
    ],
    [
      "i",
      "++"
    ],
    [
      "r",
      "[k]="
    ],
    [
      "[k",
      "];"
    ],
    [
      "16",
      "px"
    ],
    [
      "gri",
      "d"
    ],
    [
      "><",
      "li"
    ],
    [
      "><li",
      ">"
    ],
    [
      "</",
      "li"
    ],
    [
      ":",
      "#"
    ],
    [
      "A",
      "S"
    ],
    [
      "DE",
      "S"
    ],
    [
      "DES",
      "C"
    ],
    [
      "L",
      "IM"
    ],
    [
      "LIM",
      "I"
    ],
    [
      "LIMI",
      "T"
    ],
    [
      "si",
      "gned"
    ],
    [
      "example.",
      "com"
    ],
    [
      "G",
      "RO"
    ],
    [
      "GRO",
      "UP"
    ],
    [
      "==",
      "0)"
    ],
    [
      "s",
      "+="
    ],
    [
      "(n",
      "-1"
    ],
    [
      ",",
      "'"
    ],
    [
      "\"",
      ";"
    ],
    [
      "N",
      "um"
    ],
    [
      "fe",
      "tch"
    ],
    [
      "console.log",
      "('"
    ],
    [
      "8",
      "00"
    ],
    [
      "dat",
      "ac"
    ],
    [
      "datac",
      "lass"
    ],
    [
      "10",
      ";"
    ],
    [
      "base",
      "64"
    ],
    [
      "h",
      "1"
    ],
    [
      "test",
      "."
    ],
    [
      "NU",
      "LL"
    ],
    [
      "gre",
      "p"
    ],
    [
      "25",
      "6"
    ],
    [
      "p",
      "to"
    ],
    [
      "place",
      "holder"
    ],
    [
      "pand",
      "as"
    ],
    [
      "lo",
      "t"
    ],
    [
      "r",
      "ors"
    ],
    [
      "produ",
      "ction"
    ],
    [
      "tool",
      "s"
    ],
    [
      "asynci",
      "o."
    ],
    [
      "roll",
      "ing"
    ],
    [
      "li",
      "ce"
    ],
    [
      "y",
      "am"
    ],
    [
      "in",
      "str"
    ],
    [
      "instr",
      "ument"
    ],
    [
      "B",
      "rit"
    ],
    [
      "Brit",
      "ish"
    ],
    [
      "resi",
      "dent"
    ],
    [
      "25",
      "."
    ],
    [
      "fl",
      "ag"
    ],
    [
      "A",
      "si"
    ],
    [
      "4",
      "]"
    ],
    [
      "a,",
      "b="
    ],
    [
      "print",
      "f(\""
    ],
    [
      "wh",
      "ose"
    ],
    [
      "D",
      "og"
    ],
    [
      "type",
      "="
    ],
    [
      "com",
      "ment"
    ],
    [
      "they",
      "'re"
    ],
    [
      "seed",
      "s"
    ],
    [
      "single",
      "-"
    ],
    [
      "gar",
      "lic"
    ],
    [
      "min",
      "ate"
    ],
    [
      "pigment",
      "s"
    ],
    [
      "reach",
      "ing"
    ],
    [
      "c",
      "am"
    ],
    [
      "g",
      "am"
    ],
    [
      "soci",
      "al"
    ],
    [
      "ca",
      "ffe"
    ],
    [
      "un",
      "ch"
    ],
    [
      "ra",
      "y"
    ],
    [
      "food",
      "?"
    ],
    [
      "-",
      "rich"
    ],
    [
      "Al",
      "cohol"
    ],
    [
      "-",
      "based"
    ],
    [
      "p",
      "ounds"
    ],
    [
      "plast",
      "ic"
    ],
    [
      "weigh",
      "ing"
    ],
    [
      "w",
      "all"
    ],
    [
      "di",
      "verse"
    ],
    [
      "me",
      "ch"
    ],
    [
      "mech",
      "an"
    ],
    [
      "fur",
      "ther"
    ],
    [
      "country",
      ","
    ],
    [
      "12",
      "0"
    ],
    [
      "miner",
      "al"
    ],
    [
      "as",
      "su"
    ],
    [
      "assu",
      "mp"
    ],
    [
      "assump",
      "tions,"
    ],
    [
      "5",
      "%"
    ],
    [
      "al",
      "mon"
    ],
    [
      "continu",
      "ous"
    ],
    [
      "tech",
      "no"
    ],
    [
      "techno",
      "logy"
    ],
    [
      "9",
      "1"
    ],
    [
      "rain",
      "forest"
    ],
    [
      "chees",
      "e"
    ],
    [
      "in",
      "direct"
    ],
    [
      "adv",
      "ise"
    ],
    [
      "15",
      "6"
    ],
    [
      "mi",
      "grate"
    ],
    [
      "heav",
      "iest"
    ],
    [
      "imm",
      "i"
    ],
    [
      "a",
      "verse"
    ],
    [
      "con",
      "om"
    ],
    [
      "CO",
      "2"
    ],
    [
      "inte",
      "re"
    ],
    [
      "ever",
      "yth"
    ],
    [
      "relationship",
      "s,"
    ],
    [
      "cont",
      "ri"
    ],
    [
      "in",
      "ess"
    ],
    [
      "on",
      "?"
    ],
    [
      "di",
      "et"
    ],
    [
      "maintain",
      "ing"
    ],
    [
      "in",
      "st"
    ],
    [
      "St",
      "ay"
    ],
    [
      "ket",
      "s"
    ],
    [
      "ame",
      "ter"
    ],
    [
      "stres",
      "s,"
    ],
    [
      "depend",
      "s"
    ],
    [
      "l",
      "led"
    ],
    [
      "st",
      "ir"
    ],
    [
      "k",
      "ind"
    ],
    [
      "ant",
      "um"
    ],
    [
      "simp",
      "ly."
    ],
    [
      "ous",
      "ly"
    ],
    [
      "su",
      "per"
    ],
    [
      "fun",
      "dam"
    ],
    [
      "fundam",
      "ental"
    ],
    [
      "learn",
      "ing?"
    ],
    [
      "mach",
      "ines"
    ],
    [
      "requ",
      "ire"
    ],
    [
      "challeng",
      "es,"
    ],
    [
      "Ger",
      "many"
    ],
    [
      "om",
      "b"
    ],
    [
      "ing",
      "s."
    ],
    [
      "s",
      "ong"
    ],
    [
      "vac",
      "u"
    ],
    [
      "vacu",
      "um"
    ],
    [
      "7",
      "9"
    ],
    [
      "Ã",
      ""
    ],
    [
      "A",
      "ir"
    ],
    [
      "for",
      "ces"
    ],
    [
      "Wh",
      "en"
    ],
    [
      "exceed",
      "s"
    ],
    [
      "s",
      "!"
    ],
    [
      "19",
      "84"
    ],
    [
      "Pri",
      "de"
    ],
    [
      "Pre",
      "ju"
    ],
    [
      "Preju",
      "di"
    ],
    [
      "there",
      "?"
    ],
    [
      "2",
      "12"
    ],
    [
      "A",
      "ma"
    ],
    [
      "Ama",
      "zon"
    ],
    [
      "8",
      "1"
    ],
    [
      "O",
      "tt"
    ],
    [
      "Ott",
      "aw"
    ],
    [
      "Ottaw",
      "a."
    ],
    [
      "si",
      "x"
    ],
    [
      "ocean",
      "."
    ],
    [
      "galax",
      "y"
    ],
    [
      "mas",
      "sive"
    ],
    [
      "du",
      "st"
    ],
    [
      "gravit",
      "y."
    ],
    [
      "Brazil",
      "?"
    ],
    [
      "environ",
      "ment."
    ],
    [
      "Australi",
      "a?"
    ],
    [
      "relati",
      "vity"
    ],
    [
      "eco",
      "system"
    ],
    [
      "bon",
      "es"
    ],
    [
      "gu",
      "es"
    ],
    [
      "a",
      "go"
    ],
    [
      "Ge",
      "or"
    ],
    [
      "Geor",
      "ge"
    ],
    [
      "well",
      "."
    ],
    [
      "M",
      "ad"
    ],
    [
      "3.14",
      "15"
    ],
    [
      "Char",
      "les"
    ],
    [
      "Indi",
      "a?"
    ],
    [
      "i",
      "o"
    ],
    [
      "Afric",
      "an"
    ],
    [
      "St",
      "arry"
    ],
    [
      "ar",
      "y."
    ],
    [
      "M",
      "ost"
    ],
    [
      "teeth",
      "."
    ],
    [
      "telephone",
      "?"
    ],
    [
      "Gra",
      "ham"
    ],
    [
      "B",
      "ell"
    ],
    [
      "ire",
      "s."
    ],
    [
      "proper",
      "ti"
    ],
    [
      "B",
      "lo"
    ],
    [
      "am",
      "on"
    ],
    [
      "Sun",
      "."
    ],
    [
      "metabolis",
      "m."
    ],
    [
      "M",
      "et"
    ],
    [
      "reaction",
      "s"
    ],
    [
      "iron",
      "?"
    ],
    [
      "A",
      "bu"
    ],
    [
      "Abu",
      "j"
    ],
    [
      "V",
      "atic"
    ],
    [
      "Vatic",
      "an"
    ],
    [
      "C",
      "ity"
    ],
    [
      "fiel",
      "d."
    ],
    [
      "States",
      "?"
    ],
    [
      "ing",
      "ton"
    ],
    [
      "at",
      "es."
    ],
    [
      "O",
      "s"
    ],
    [
      "R",
      "en"
    ],
    [
      "re",
      "pl"
    ],
    [
      "repl",
      "en"
    ],
    [
      "replen",
      "ish"
    ],
    [
      "2",
      "6"
    ],
    [
      "sil",
      "ver"
    ],
    [
      "S",
      "wit"
    ],
    [
      "Swit",
      "zer"
    ],
    [
      "en",
      "n"
    ],
    [
      "spid",
      "er"
    ],
    [
      "absor",
      "bs"
    ],
    [
      "an",
      "s."
    ],
    [
      "Ch",
      "ile"
    ],
    [
      "i",
      "ma"
    ],
    [
      "mp",
      "h"
    ],
    [
      "cloud",
      "s,"
    ],
    [
      "pl",
      "ate"
    ],
    [
      "th",
      "o"
    ],
    [
      "R",
      "ep"
    ],
    [
      "Rep",
      "ublic"
    ],
    [
      "ue",
      "."
    ],
    [
      "R",
      "oman"
    ],
    [
      "hour",
      "."
    ],
    [
      "i",
      "str"
    ],
    [
      "pound",
      "."
    ],
    [
      "space",
      ","
    ],
    [
      "cop",
      "per"
    ],
    [
      "si",
      "mm"
    ],
    [
      "simm",
      "er"
    ],
    [
      "h",
      "un"
    ],
    [
      "hun",
      "gr"
    ],
    [
      "of",
      "ficial"
    ],
    [
      "stretch",
      "ing"
    ],
    [
      "minut",
      "es."
    ],
    [
      "mo",
      "d"
    ],
    [
      "foc",
      "used"
    ],
    [
      "pe",
      "at"
    ],
    [
      "heav",
      "y"
    ],
    [
      "vac",
      "c"
    ],
    [
      "subst",
      "ances"
    ],
    [
      "ac",
      "celer"
    ],
    [
      "S",
      "olve"
    ],
    [
      "li",
      "ed"
    ],
    [
      "F",
      "ind"
    ],
    [
      "he",
      "ight"
    ],
    [
      "express",
      "ion"
    ],
    [
      "c",
      "um"
    ],
    [
      "point",
      "s"
    ],
    [
      "-",
      "3"
    ],
    [
      "7",
      "."
    ],
    [
      "r",
      "ational"
    ],
    [
      "Lettu",
      "ce"
    ],
    [
      "habit",
      "?"
    ],
    [
      "interview",
      "?"
    ],
    [
      "R",
      "es"
    ],
    [
      "Bre",
      "ak"
    ],
    [
      "step",
      "s"
    ],
    [
      "compreh",
      "ens"
    ],
    [
      "repe",
      "t"
    ],
    [
      "repet",
      "ition"
    ],
    [
      "frequ",
      "ent"
    ],
    [
      "K",
      "now"
    ],
    [
      "point",
      "s,"
    ],
    [
      "heat",
      ","
    ],
    [
      "p",
      "ul"
    ],
    [
      "motiv",
      "ated"
    ],
    [
      "pur",
      "pose"
    ],
    [
      "mem",
      "ori"
    ],
    [
      "sc",
      "en"
    ],
    [
      "t",
      "aking"
    ],
    [
      "Ch",
      "ines"
    ],
    [
      "Chines",
      "e"
    ],
    [
      "in",
      "flu"
    ],
    [
      "influ",
      "ence"
    ],
    [
      "pos",
      "session"
    ],
    [
      "wh",
      "om"
    ],
    [
      "learn",
      "ing."
    ],
    [
      "organ",
      "iz"
    ],
    [
      "C",
      "l"
    ],
    [
      "de",
      "li"
    ],
    [
      "prof",
      "ession"
    ],
    [
      "profession",
      "al"
    ],
    [
      "ne",
      "go"
    ],
    [
      "nego",
      "ti"
    ],
    [
      "value",
      ","
    ],
    [
      "do",
      "g"
    ],
    [
      "health",
      ","
    ],
    [
      "one",
      "y."
    ],
    [
      "ber",
      "ri"
    ],
    [
      "stor",
      "m"
    ],
    [
      "ge",
      "d"
    ],
    [
      "dai",
      "ly?"
    ],
    [
      "thank",
      "ful"
    ],
    [
      "M",
      "a"
    ],
    [
      "inter",
      "rupt"
    ],
    [
      "li",
      "d"
    ],
    [
      "mel",
      "t"
    ],
    [
      "ri",
      "ce"
    ],
    [
      "sal",
      "t,"
    ],
    [
      "r",
      "ink"
    ],
    [
      "cor",
      "n"
    ],
    [
      "da",
      "mp"
    ],
    [
      "av",
      "o"
    ],
    [
      "avo",
      "cado"
    ],
    [
      "cred",
      "it"
    ],
    [
      "line",
      ","
    ],
    [
      "interest",
      "."
    ],
    [
      "bon",
      "d?"
    ],
    [
      "go",
      "ver"
    ],
    [
      "gover",
      "n"
    ],
    [
      "govern",
      "ment"
    ],
    [
      "n",
      "ing?"
    ],
    [
      "Pre",
      "pare"
    ],
    [
      "first",
      "."
    ],
    [
      "possible",
      "."
    ],
    [
      "iou",
      "s,"
    ],
    [
      "b",
      "es"
    ],
    [
      "fl",
      "avor"
    ],
    [
      "fru",
      "it,"
    ],
    [
      "b",
      "ag"
    ],
    [
      "comp",
      "ost"
    ],
    [
      "s",
      "cr"
    ],
    [
      "r",
      "ather"
    ],
    [
      "post",
      "ure"
    ],
    [
      "eng",
      "age"
    ],
    [
      "fem",
      "ur"
    ],
    [
      "P",
      "a"
    ],
    [
      "des",
      "ign"
    ],
    [
      "speak",
      "ing?"
    ],
    [
      "recor",
      "d"
    ],
    [
      "I",
      "f"
    ],
    [
      "ocean",
      "?"
    ],
    [
      "Cur",
      "ie"
    ],
    [
      "D",
      "ar"
    ],
    [
      "ers",
      "?"
    ],
    [
      "ree",
      "f"
    ],
    [
      "ar",
      "ri"
    ],
    [
      "we",
      "bs"
    ],
    [
      "p",
      "ret"
    ],
    [
      "tr",
      "u"
    ],
    [
      "l",
      "ap"
    ],
    [
      "land",
      "."
    ],
    [
      "C",
      "ali"
    ],
    [
      "Cali",
      "for"
    ],
    [
      "listen",
      "ing"
    ],
    [
      "di",
      "ffic"
    ],
    [
      "part",
      "ner"
    ],
    [
      "C",
      ","
    ],
    [
      "E",
      "at"
    ],
    [
      "int",
      "ens"
    ],
    [
      "in",
      "j"
    ],
    [
      "inj",
      "ur"
    ],
    [
      "A",
      "D"
    ],
    [
      "nes",
      "s."
    ],
    [
      "every",
      "one"
    ],
    [
      "su",
      "d"
    ],
    [
      "sud",
      "den"
    ],
    [
      "led",
      "ge"
    ],
    [
      "right",
      "."
    ],
    [
      "think",
      "ing?"
    ],
    [
      "ti",
      "mer"
    ],
    [
      "ex",
      "hale"
    ],
    [
      "Co",
      "ok"
    ],
    [
      "slow",
      "ly"
    ],
    [
      "b",
      "ake"
    ],
    [
      "pot",
      "ato"
    ],
    [
      "gent",
      "le"
    ],
    [
      "sc",
      "ra"
    ],
    [
      "scra",
      "mb"
    ],
    [
      "t",
      "ough"
    ],
    [
      "Id",
      "entify"
    ],
    [
      "intro",
      "du"
    ],
    [
      "ob",
      "jective"
    ],
    [
      "sugar",
      "s"
    ],
    [
      "me",
      "als"
    ],
    [
      "ar",
      "ter"
    ],
    [
      "ed",
      ","
    ],
    [
      "el",
      "s."
    ],
    [
      "all",
      "ows"
    ],
    [
      "mus",
      "cles"
    ],
    [
      "Co",
      "mm"
    ],
    [
      "emp",
      "ath"
    ],
    [
      "anti",
      "biotic"
    ],
    [
      "k",
      "ill"
    ],
    [
      "th",
      "ing,"
    ],
    [
      "pre",
      "dic"
    ],
    [
      "aph",
      "rase"
    ],
    [
      "ori",
      "gin"
    ],
    [
      "cl",
      "ude"
    ],
    [
      "is",
      "m?"
    ],
    [
      "re",
      "ason"
    ],
    [
      "support",
      "ing"
    ],
    [
      "ti",
      "re"
    ],
    [
      "nee",
      "ded."
    ],
    [
      "ground",
      ","
    ],
    [
      "st",
      "at"
    ],
    [
      "stat",
      "us"
    ],
    [
      "success",
      "ful"
    ],
    [
      "encry",
      "pt"
    ],
    [
      "pi",
      "ano"
    ],
    [
      "od",
      "d"
    ],
    [
      "p",
      "ic"
    ],
    [
      "qual",
      "ity"
    ],
    [
      "fish",
      "?"
    ],
    [
      "w",
      "atch"
    ],
    [
      "ag",
      "ra"
    ],
    [
      "ac",
      "ron"
    ],
    [
      "i",
      "di"
    ],
    [
      "s",
      "aves"
    ],
    [
      "on",
      "es."
    ],
    [
      "t",
      "wi"
    ],
    [
      "de",
      "tail"
    ],
    [
      "sent",
      "ences"
    ],
    [
      "vers",
      "ion"
    ],
    [
      "in",
      "come"
    ],
    [
      "sp",
      "end"
    ],
    [
      "LE",
      "D"
    ],
    [
      "b",
      "all"
    ],
    [
      "pl",
      "ac"
    ],
    [
      "m",
      "ut"
    ],
    [
      "fo",
      "ot"
    ],
    [
      "me",
      "at"
    ],
    [
      "subst",
      "ance"
    ],
    [
      "dis",
      "solve"
    ],
    [
      "obser",
      "v"
    ],
    [
      "change",
      ","
    ],
    [
      "p",
      "ress"
    ],
    [
      "nut",
      "rit"
    ],
    [
      "down",
      ","
    ],
    [
      "lin",
      "es,"
    ],
    [
      "test",
      "?"
    ],
    [
      "m",
      "ari"
    ],
    [
      "gra",
      "mm"
    ],
    [
      "pun",
      "ct"
    ],
    [
      "exe",
      "c"
    ],
    [
      "C",
      "le"
    ],
    [
      "F",
      "oc"
    ],
    [
      "Foc",
      "us"
    ],
    [
      "vis",
      "ion"
    ],
    [
      "re",
      "present"
    ],
    [
      "V",
      "P"
    ],
    [
      "energ",
      "y?"
    ],
    [
      "u",
      "ro"
    ],
    [
      "m",
      "ess"
    ],
    [
      "p",
      "am"
    ],
    [
      "ser",
      "oton"
    ],
    [
      "ent",
      "?"
    ],
    [
      "M",
      "ic"
    ],
    [
      "ction",
      "s."
    ],
    [
      "z",
      "ing"
    ],
    [
      "h",
      "ack"
    ],
    [
      "ical",
      "ly."
    ],
    [
      "loc",
      "ation"
    ],
    [
      "t",
      "aste"
    ],
    [
      "ces",
      "s."
    ],
    [
      "o",
      "live"
    ],
    [
      "seed",
      "s,"
    ],
    [
      "aste",
      "d"
    ],
    [
      "ro",
      "zen"
    ],
    [
      "c",
      "ure"
    ],
    [
      "difference",
      "?"
    ],
    [
      "t",
      "es"
    ],
    [
      "ca",
      "st"
    ],
    [
      "ful",
      "l"
    ],
    [
      "ment",
      "s."
    ],
    [
      "cook",
      "ing"
    ],
    [
      "else",
      "."
    ],
    [
      "af",
      "firm"
    ],
    [
      "R",
      "u"
    ],
    [
      "plic",
      "ation"
    ],
    [
      "step",
      "s,"
    ],
    [
      "mat",
      "ri"
    ],
    [
      "matri",
      "x"
    ],
    [
      "fat",
      "ig"
    ],
    [
      "gi",
      "ant"
    ],
    [
      "G",
      "al"
    ],
    [
      "tr",
      "ic"
    ],
    [
      "St",
      "ars"
    ],
    [
      "expo",
      "sure"
    ],
    [
      "en",
      "sive"
    ],
    [
      "de",
      "du"
    ],
    [
      "mon",
      "ic"
    ],
    [
      "visual",
      "ize"
    ],
    [
      "e",
      "val"
    ],
    [
      "l",
      "at"
    ],
    [
      "cal",
      "culate"
    ],
    [
      "ence",
      "."
    ],
    [
      "benef",
      "ic"
    ],
    [
      "check",
      "list."
    ],
    [
      "gre",
      "ens"
    ],
    [
      "condition",
      "s."
    ],
    [
      "t",
      "or"
    ],
    [
      "en",
      "th"
    ],
    [
      "encry",
      "ption"
    ],
    [
      "cry",
      "ption"
    ],
    [
      "ur",
      "ing"
    ],
    [
      "down",
      "load"
    ],
    [
      "age",
      "?"
    ],
    [
      "wind",
      "ow"
    ],
    [
      "sun",
      ","
    ],
    [
      "arti",
      "st"
    ],
    [
      "add",
      "(a,"
    ],
    [
      "safe",
      "_"
    ],
    [
      "factorial",
      "(n):"
    ],
    [
      "palindrome",
      "."
    ],
    [
      "vow",
      "els"
    ],
    [
      "max",
      "im"
    ],
    [
      "maxim",
      "um"
    ],
    [
      "n",
      ":"
    ],
    [
      "si",
      "eve"
    ],
    [
      "mid",
      "]"
    ],
    [
      "order",
      "."
    ],
    [
      "diction",
      "ary"
    ],
    [
      "_",
      "common"
    ],
    [
      "lc",
      "m"
    ],
    [
      "Counter",
      "("
    ],
    [
      "replace",
      "('"
    ],
    [
      "len",
      "(lst"
    ],
    [
      "d.items",
      "()"
    ],
    [
      "do",
      "t"
    ],
    [
      "zip",
      "(a,"
    ],
    [
      "(",
      "hi"
    ],
    [
      "inte",
      "g"
    ],
    [
      "range",
      "(n"
    ],
    [
      "open",
      "(path,"
    ],
    [
      "as",
      "ci"
    ],
    [
      "False",
      ")"
    ],
    [
      "[",
      "^"
    ],
    [
      "(fn",
      ","
    ],
    [
      "function",
      "."
    ],
    [
      "out.append",
      "("
    ],
    [
      "len",
      "(a"
    ],
    [
      "zer",
      "os"
    ],
    [
      "'",
      "{"
    ],
    [
      "]",
      ":"
    ],
    [
      "sum",
      "("
    ],
    [
      "=",
      "True"
    ],
    [
      "ev",
      "ens"
    ],
    [
      "key",
      "s,"
    ],
    [
      "default",
      "="
    ],
    [
      "i",
      ")"
    ],
    [
      "read",
      "er"
    ],
    [
      "ind",
      "ices"
    ],
    [
      "3",
      "3"
    ],
    [
      "dig",
      "it"
    ],
    [
      "el",
      "li"
    ],
    [
      "(",
      "s."
    ],
    [
      "(p",
      ")"
    ],
    [
      "th",
      "rot"
    ],
    [
      "throt",
      "tle"
    ],
    [
      "fact",
      "ors"
    ],
    [
      "/g,",
      "'"
    ],
    [
      "[",
      "..."
    ],
    [
      "arr.",
      "reduce("
    ],
    [
      "]",
      "/"
    ],
    [
      "||",
      "[])."
    ],
    [
      "if(n",
      "%2=="
    ],
    [
      "a,",
      "b"
    ],
    [
      "JSON.",
      "parse"
    ],
    [
      "p",
      "="
    ],
    [
      ").",
      "pad"
    ],
    [
      ").pad",
      "Start"
    ],
    [
      ").padStart",
      "(2,"
    ],
    [
      ").padStart(2,",
      "'0"
    ],
    [
      ")",
      "}"
    ],
    [
      "!",
      "=="
    ],
    [
      "[",
      "c"
    ],
    [
      "(arr",
      "."
    ],
    [
      "s=",
      "new"
    ],
    [
      "s.",
      "has"
    ],
    [
      "arra",
      "ys"
    ],
    [
      "-",
      "-"
    ],
    [
      "[i]",
      ","
    ],
    [
      "Q",
      "R"
    ],
    [
      "(",
      "{"
    ],
    [
      "s.",
      "replace(/"
    ],
    [
      "to",
      "U"
    ],
    [
      "toU",
      "pper"
    ],
    [
      "toUpper",
      "Case"
    ],
    [
      "A-",
      "Z"
    ],
    [
      "].",
      "sort"
    ],
    [
      "s.",
      "length"
    ],
    [
      "(",
      "obj"
    ],
    [
      "+",
      "'"
    ],
    [
      "(n",
      ");"
    ],
    [
      "(r",
      "=>"
    ],
    [
      "S",
      "S"
    ],
    [
      "a",
      ";"
    ],
    [
      "i",
      "<"
    ],
    [
      ",",
      "b"
    ],
    [
      "=[",
      "]"
    ],
    [
      "temp",
      "late"
    ],
    [
      "5",
      ";"
    ],
    [
      "D",
      "ATE"
    ],
    [
      "SE",
      "T"
    ],
    [
      "DE",
      "LE"
    ],
    [
      "DELE",
      "TE"
    ],
    [
      "A",
      "V"
    ],
    [
      "av",
      "g"
    ],
    [
      "name",
      "d"
    ],
    [
      "m",
      "="
    ],
    [
      "un",
      "signed"
    ],
    [
      "add",
      "("
    ],
    [
      "('",
      "key"
    ],
    [
      "('",
      "https://"
    ],
    [
      "U",
      "M"
    ],
    [
      "Po",
      "int"
    ],
    [
      "Con",
      "t"
    ],
    [
      "yiel",
      "d"
    ],
    [
      "b",
      "t"
    ],
    [
      "wind",
      "ow."
    ],
    [
      "de",
      "c"
    ],
    [
      "count",
      "s"
    ],
    [
      "Arra",
      "y"
    ],
    [
      "button",
      ">"
    ],
    [
      "()",
      "]"
    ],
    [
      "request",
      "s."
    ],
    [
      "Ex",
      "ception"
    ],
    [
      "><",
      "option>"
    ],
    [
      "</",
      "option>"
    ],
    [
      "pag",
      "in"
    ],
    [
      "pagin",
      "ate"
    ],
    [
      "-",
      "w"
    ],
    [
      "i",
      ">"
    ],
    [
      "M",
      "ap"
    ],
    [
      "best",
      "="
    ],
    [
      "AL",
      "T"
    ],
    [
      "ALT",
      "ER"
    ],
    [
      "go",
      "og"
    ],
    [
      "goog",
      "le."
    ],
    [
      "google.",
      "com"
    ],
    [
      "e",
      "e"
    ],
    [
      "split",
      "('"
    ],
    [
      "I",
      "D"
    ],
    [
      "G",
      "it"
    ],
    [
      "p",
      "lot"
    ],
    [
      "[",
      "'"
    ],
    [
      "d",
      "="
    ],
    [
      "(",
      "e"
    ],
    [
      "config",
      "par"
    ],
    [
      "configpar",
      "ser"
    ],
    [
      "c",
      "f"
    ],
    [
      "in",
      "i"
    ],
    [
      "obser",
      "ve"
    ],
    [
      "tool",
      "s."
    ],
    [
      "de",
      "que"
    ],
    [
      "change",
      "d"
    ],
    [
      "m",
      "al"
    ],
    [
      "27",
      "?"
    ],
    [
      "v",
      "ore"
    ],
    [
      "strip",
      "es"
    ],
    [
      "bre",
      "ad"
    ],
    [
      "fi",
      "re"
    ],
    [
      "[",
      "1,"
    ],
    [
      "1,2,3",
      ","
    ],
    [
      "form",
      ">"
    ],
    [
      "#",
      "include"
    ],
    [
      "\"",
      "]"
    ],
    [
      "\"",
      "."
    ],
    [
      "(s",
      "al"
    ],
    [
      "(sal",
      "ary"
    ],
    [
      "(salary",
      ")"
    ],
    [
      "cr",
      "ack"
    ],
    [
      "techni",
      "qu"
    ],
    [
      "15",
      "."
    ],
    [
      "own",
      ","
    ],
    [
      "food",
      "s,"
    ],
    [
      "mil",
      "es."
    ],
    [
      "protect",
      "ing"
    ],
    [
      "ical",
      "ly,"
    ],
    [
      "veget",
      "ables"
    ],
    [
      "als",
      "o"
    ],
    [
      "b",
      "ra"
    ],
    [
      "he",
      "ated,"
    ],
    [
      "d",
      "ise"
    ],
    [
      "lar",
      "ger"
    ],
    [
      "d",
      "s,"
    ],
    [
      "y",
      "aw"
    ],
    [
      "again",
      "st"
    ],
    [
      "self-",
      "compass"
    ],
    [
      "co",
      "di"
    ],
    [
      "charg",
      "es"
    ],
    [
      "surface",
      ","
    ],
    [
      "ab",
      "und"
    ],
    [
      "abund",
      "ant"
    ],
    [
      "car",
      "s"
    ],
    [
      "mil",
      "k"
    ],
    [
      "ose",
      "bu"
    ],
    [
      "osebu",
      "mp"
    ],
    [
      "gr",
      "ap"
    ],
    [
      "histor",
      "ical"
    ],
    [
      "un",
      "t"
    ],
    [
      "ary",
      ","
    ],
    [
      "str",
      "ongest"
    ],
    [
      "p",
      "u"
    ],
    [
      "M",
      "us"
    ],
    [
      "3",
      "D"
    ],
    [
      "pr",
      "inters"
    ],
    [
      "Blue",
      "tooth"
    ],
    [
      "rel",
      "ess"
    ],
    [
      "cancel",
      "ing"
    ],
    [
      "activ",
      "ates"
    ],
    [
      "ze",
      "?"
    ],
    [
      "15",
      "0"
    ],
    [
      "ri",
      "st"
    ],
    [
      "des",
      "p"
    ],
    [
      "desp",
      "ite"
    ],
    [
      "mat",
      "he"
    ],
    [
      "mathe",
      "mat"
    ],
    [
      "cold",
      "er"
    ],
    [
      "consist",
      "ent,"
    ],
    [
      "sun",
      "?"
    ],
    [
      "detect",
      "or"
    ],
    [
      "2",
      "2"
    ],
    [
      "ad",
      "ap"
    ],
    [
      "in",
      "divid"
    ],
    [
      "ase",
      ","
    ],
    [
      "popul",
      "ation"
    ],
    [
      "princi",
      "ple"
    ],
    [
      "hor",
      "mon"
    ],
    [
      "Americ",
      "an"
    ],
    [
      "satis",
      "fy"
    ],
    [
      "comp",
      "lement"
    ],
    [
      "10",
      "8"
    ],
    [
      "ca",
      "ve"
    ],
    [
      "tra",
      "ffic"
    ],
    [
      "challeng",
      "es"
    ],
    [
      "Q",
      "uest"
    ],
    [
      "Quest",
      "ion"
    ],
    [
      "analy",
      "ze"
    ],
    [
      "all",
      "usion"
    ],
    [
      "incre",
      "ases"
    ],
    [
      "de",
      "leg"
    ],
    [
      "r",
      "up"
    ],
    [
      "op",
      "tim"
    ],
    [
      "absor",
      "b"
    ],
    [
      "cr",
      "ash"
    ],
    [
      "swe",
      "at"
    ],
    [
      "potenti",
      "ally"
    ],
    [
      "ic",
      "it"
    ],
    [
      "cre",
      "te"
    ],
    [
      "cool",
      "ing"
    ],
    [
      "calori",
      "es"
    ],
    [
      "sp",
      "an"
    ],
    [
      "st",
      "a"
    ],
    [
      "ven",
      "om"
    ],
    [
      "e",
      "conom"
    ],
    [
      "health",
      "."
    ],
    [
      "intere",
      "sted"
    ],
    [
      "es",
      ":"
    ],
    [
      "5",
      "6"
    ],
    [
      "bu",
      "gg"
    ],
    [
      "my_",
      "list."
    ],
    [
      "do",
      "ing"
    ],
    [
      "M",
      "ach"
    ],
    [
      "Mach",
      "ine"
    ],
    [
      "an",
      "ch"
    ],
    [
      "ex",
      "plic"
    ],
    [
      "2",
      "?"
    ],
    [
      "Â°",
      "F"
    ],
    [
      "enjo",
      "y"
    ],
    [
      "sp",
      "ir"
    ],
    [
      "work",
      "ing"
    ],
    [
      "favor",
      "ite"
    ],
    [
      "Ham",
      "let"
    ],
    [
      "chlor",
      "ophyll"
    ],
    [
      "glo",
      "bal"
    ],
    [
      "Se",
      "ason"
    ],
    [
      "oxygen",
      "."
    ],
    [
      "amount",
      "s"
    ],
    [
      "v",
      "ary"
    ],
    [
      "regular",
      "ly"
    ],
    [
      "includ",
      "ing"
    ],
    [
      "world",
      "wide"
    ],
    [
      "gre",
      "ater"
    ],
    [
      "J",
      "uli"
    ],
    [
      "e",
      "ch"
    ],
    [
      "intelligen",
      "ce?"
    ],
    [
      "per",
      "ception"
    ],
    [
      "arti",
      "ficial"
    ],
    [
      "tall",
      ","
    ],
    [
      "gri",
      "lled"
    ],
    [
      "physic",
      "s"
    ],
    [
      "level",
      ","
    ],
    [
      "comp",
      "lex"
    ],
    [
      "4",
      "5."
    ],
    [
      "atom",
      "ic"
    ],
    [
      "qu",
      "iet"
    ],
    [
      "light",
      "?"
    ],
    [
      "29",
      "9,"
    ],
    [
      "299,",
      "79"
    ],
    [
      "m",
      "/"
    ],
    [
      "f",
      "ly?"
    ],
    [
      "tion",
      ","
    ],
    [
      "mo",
      "der"
    ],
    [
      "moder",
      "n"
    ],
    [
      "S",
      "low"
    ],
    [
      "T",
      "ok"
    ],
    [
      "Tok",
      "y"
    ],
    [
      "Toky",
      "o."
    ],
    [
      "J",
      "ane"
    ],
    [
      "Fahrenhe",
      "it."
    ],
    [
      "ive",
      "."
    ],
    [
      "Gra",
      "vity"
    ],
    [
      "pull",
      "s"
    ],
    [
      "pen",
      "ic"
    ],
    [
      "penic",
      "ill"
    ],
    [
      "penicill",
      "in"
    ],
    [
      "hex",
      "agon"
    ],
    [
      "si",
      "d"
    ],
    [
      "circle",
      "."
    ],
    [
      "organ",
      "?"
    ],
    [
      "freez",
      "ing"
    ],
    [
      "freez",
      "es"
    ],
    [
      "log",
      "ic"
    ],
    [
      "Can",
      "ber"
    ],
    [
      "Canber",
      "ra"
    ],
    [
      "vit",
      "y."
    ],
    [
      "Ital",
      "y?"
    ],
    [
      "It",
      "aly"
    ],
    [
      "Rome",
      "."
    ],
    [
      "Portu",
      "gues"
    ],
    [
      "German",
      "y?"
    ],
    [
      "Ber",
      "lin"
    ],
    [
      "Berlin",
      "."
    ],
    [
      "power",
      "house"
    ],
    [
      "matter",
      "."
    ],
    [
      "P",
      "i"
    ],
    [
      "di",
      "vers"
    ],
    [
      "habit",
      "at"
    ],
    [
      "V",
      "in"
    ],
    [
      "Vin",
      "cent"
    ],
    [
      "Go",
      "gh"
    ],
    [
      "Mexico",
      "?"
    ],
    [
      "C",
      "ity."
    ],
    [
      "ex",
      "tra"
    ],
    [
      "F",
      "e"
    ],
    [
      "C",
      "airo"
    ],
    [
      "Cairo",
      "."
    ],
    [
      "invent",
      "ing"
    ],
    [
      "telephone",
      "."
    ],
    [
      "Argent",
      "ina?"
    ],
    [
      "Argent",
      "ina"
    ],
    [
      "Bu",
      "enos"
    ],
    [
      "A",
      "ires."
    ],
    [
      "is",
      "land"
    ],
    [
      "O",
      "d"
    ],
    [
      "Od",
      "ys"
    ],
    [
      "Odys",
      "se"
    ],
    [
      "so",
      "di"
    ],
    [
      "Afric",
      "a?"
    ],
    [
      "Afric",
      "a"
    ],
    [
      "f",
      "on"
    ],
    [
      "ti",
      "d"
    ],
    [
      "T",
      "ides"
    ],
    [
      "Kingdo",
      "m?"
    ],
    [
      "S",
      "co"
    ],
    [
      "c",
      "en"
    ],
    [
      "D",
      "."
    ],
    [
      "Indones",
      "ia"
    ],
    [
      "Sou",
      "thern"
    ],
    [
      "mis",
      "p"
    ],
    [
      "misp",
      "here"
    ],
    [
      "table",
      "."
    ],
    [
      "serv",
      "ices"
    ],
    [
      "Niger",
      "ia?"
    ],
    [
      "Abuj",
      "a."
    ],
    [
      "5",
      "2"
    ],
    [
      "sol",
      "ute"
    ],
    [
      "Thail",
      "and"
    ],
    [
      "so",
      "cc"
    ],
    [
      "socc",
      "er"
    ],
    [
      "W",
      "ash"
    ],
    [
      "Sto",
      "ck"
    ],
    [
      "Ne",
      "ther"
    ],
    [
      "Nether",
      "land"
    ],
    [
      "-",
      "D"
    ],
    [
      "H",
      "er"
    ],
    [
      "Ren",
      "ew"
    ],
    [
      "Portugal",
      "?"
    ],
    [
      "Lis",
      "bon"
    ],
    [
      "Lisbon",
      "."
    ],
    [
      "alpha",
      "bet"
    ],
    [
      "Di",
      "vine"
    ],
    [
      "Co",
      "med"
    ],
    [
      "li",
      "gh"
    ],
    [
      "day",
      "s."
    ],
    [
      "I",
      "sa"
    ],
    [
      "Isa",
      "ac"
    ],
    [
      "V",
      "i"
    ],
    [
      "trans",
      "l"
    ],
    [
      "sur",
      "fac"
    ],
    [
      "D",
      "en"
    ],
    [
      "Den",
      "mark"
    ],
    [
      "h",
      "a"
    ],
    [
      "b",
      "it"
    ],
    [
      "I",
      "re"
    ],
    [
      "in",
      "."
    ],
    [
      "leg",
      "s"
    ],
    [
      "L",
      "ast"
    ],
    [
      "S",
      "upper"
    ],
    [
      "Ze",
      "al"
    ],
    [
      "P",
      "eru"
    ],
    [
      "Be",
      "eth"
    ],
    [
      "Beeth",
      "o"
    ],
    [
      "Beetho",
      "ven"
    ],
    [
      "Co",
      "lo"
    ],
    [
      "Colo",
      "mb"
    ],
    [
      "Philipp",
      "in"
    ],
    [
      "hydro",
      "gen"
    ],
    [
      "Pe",
      "ace"
    ],
    [
      "Le",
      "o"
    ],
    [
      "n",
      "itrogen"
    ],
    [
      "C",
      "ze"
    ],
    [
      "Cze",
      "ch"
    ],
    [
      "At",
      "l"
    ],
    [
      "P",
      "ak"
    ],
    [
      "Pak",
      "ist"
    ],
    [
      "Pakist",
      "an"
    ],
    [
      "z",
      "inc"
    ],
    [
      "D",
      "on"
    ],
    [
      "U",
      "kra"
    ],
    [
      "v",
      "."
    ],
    [
      "M",
      "al"
    ],
    [
      "Mal",
      "ay"
    ],
    [
      "Malay",
      "si"
    ],
    [
      "oun",
      "ces"
    ],
    [
      "Morocco",
      "?"
    ],
    [
      "R",
      "ab"
    ],
    [
      "Rab",
      "at."
    ],
    [
      "Pl",
      "ace"
    ],
    [
      "egg",
      "s"
    ],
    [
      "sleep",
      "?"
    ],
    [
      "oat",
      "meal"
    ],
    [
      "f",
      "ab"
    ],
    [
      "fab",
      "ric"
    ],
    [
      "sau",
      "ce"
    ],
    [
      "vinegar",
      ","
    ],
    [
      "m",
      "oney"
    ],
    [
      "c",
      "er"
    ],
    [
      "phone",
      "?"
    ],
    [
      "ne",
      "ck"
    ],
    [
      "H",
      "eat"
    ],
    [
      "technique",
      "?"
    ],
    [
      "Po",
      "mod"
    ],
    [
      "Pomod",
      "or"
    ],
    [
      "Pomodor",
      "o"
    ],
    [
      "break",
      ","
    ],
    [
      "sh",
      "ar"
    ],
    [
      "M",
      "atch"
    ],
    [
      "Re",
      "peat"
    ],
    [
      "condens",
      "es"
    ],
    [
      "rain",
      "."
    ],
    [
      "s",
      "cat"
    ],
    [
      "qu",
      "akes"
    ],
    [
      "selection",
      "?"
    ],
    [
      "g",
      "an"
    ],
    [
      "tra",
      "its"
    ],
    [
      "sur",
      "v"
    ],
    [
      "surv",
      "ive"
    ],
    [
      "batter",
      "y"
    ],
    [
      "ro",
      "p"
    ],
    [
      "ne",
      "ur"
    ],
    [
      "R",
      "ain"
    ],
    [
      "ref",
      "r"
    ],
    [
      "reaction",
      "?"
    ],
    [
      "CR",
      "IS"
    ],
    [
      "CRIS",
      "PR"
    ],
    [
      "pre",
      "cise"
    ],
    [
      "mo",
      "di"
    ],
    [
      "ro",
      "s"
    ],
    [
      "radi",
      "us"
    ],
    [
      "prime",
      "."
    ],
    [
      "i",
      "v"
    ],
    [
      "tri",
      "ang"
    ],
    [
      "degre",
      "es."
    ],
    [
      "Con",
      "vert"
    ],
    [
      "10",
      "?"
    ],
    [
      "l",
      "iter"
    ],
    [
      "11",
      "?"
    ],
    [
      "12",
      "1."
    ],
    [
      "action",
      "s"
    ],
    [
      "6",
      "4."
    ],
    [
      "mu",
      "ch"
    ],
    [
      "school",
      "?"
    ],
    [
      "problem",
      "s."
    ],
    [
      "jo",
      "b"
    ],
    [
      "Res",
      "earch"
    ],
    [
      "comp",
      "an"
    ],
    [
      "question",
      "s."
    ],
    [
      "in",
      "ation?"
    ],
    [
      "head",
      "ing"
    ],
    [
      "summari",
      "ze"
    ],
    [
      "space",
      "d"
    ],
    [
      "S",
      "M"
    ],
    [
      "goals",
      "?"
    ],
    [
      "specific",
      ","
    ],
    [
      "ach",
      "i"
    ],
    [
      "achi",
      "ev"
    ],
    [
      "mag",
      "net"
    ],
    [
      "e",
      "clip"
    ],
    [
      "eclip",
      "se"
    ],
    [
      "another",
      "."
    ],
    [
      "es",
      "pe"
    ],
    [
      "espe",
      "ci"
    ],
    [
      "especi",
      "ally"
    ],
    [
      "be",
      "h"
    ],
    [
      "beh",
      "ind"
    ],
    [
      "stres",
      "s?"
    ],
    [
      "an",
      "ke"
    ],
    [
      "It",
      "ali"
    ],
    [
      "Itali",
      "an"
    ],
    [
      "lo",
      "ve"
    ],
    [
      "arr",
      "ow"
    ],
    [
      "A",
      "ffe"
    ],
    [
      "Affe",
      "ct"
    ],
    [
      "imp",
      "ly"
    ],
    [
      "it",
      "self"
    ],
    [
      "algorith",
      "m"
    ],
    [
      "pol",
      "ite"
    ],
    [
      "letter",
      "?"
    ],
    [
      "le",
      ","
    ],
    [
      "negoti",
      "ate"
    ],
    [
      "ar",
      "y?"
    ],
    [
      "read",
      "y"
    ],
    [
      "he",
      "ard"
    ],
    [
      "b",
      "ark"
    ],
    [
      "l",
      "t"
    ],
    [
      "imm",
      "er"
    ],
    [
      "cl",
      "ou"
    ],
    [
      "ish",
      "ing"
    ],
    [
      "pr",
      "is"
    ],
    [
      "berri",
      "es,"
    ],
    [
      "st",
      "ra"
    ],
    [
      "ear",
      "s"
    ],
    [
      "book",
      ","
    ],
    [
      "t",
      "ab"
    ],
    [
      "te",
      "d."
    ],
    [
      "list",
      "ener"
    ],
    [
      "interrupt",
      "ing,"
    ],
    [
      "pi",
      "zz"
    ],
    [
      "be",
      "an"
    ],
    [
      "vegetabl",
      "es?"
    ],
    [
      "use",
      "."
    ],
    [
      "refriger",
      "ate"
    ],
    [
      "gen",
      "cy"
    ],
    [
      "s",
      "av"
    ],
    [
      "sav",
      "ings"
    ],
    [
      "cri",
      "ption"
    ],
    [
      "init",
      "ial"
    ],
    [
      "In",
      "fl"
    ],
    [
      "pr",
      "ices"
    ],
    [
      "comp",
      "any"
    ],
    [
      "them",
      ","
    ],
    [
      "cur",
      "ious,"
    ],
    [
      "met",
      "aph"
    ],
    [
      "bot",
      "tle"
    ],
    [
      "re",
      "pair"
    ],
    [
      "re",
      "charge"
    ],
    [
      "wal",
      "k,"
    ],
    [
      "exercise",
      "."
    ],
    [
      "pump",
      "s"
    ],
    [
      "process",
      "es"
    ],
    [
      "i",
      "es,"
    ],
    [
      "mindful",
      "ness"
    ],
    [
      "con",
      "fl"
    ],
    [
      "pri",
      "v"
    ],
    [
      "solution",
      "."
    ],
    [
      "achievement",
      "s,"
    ],
    [
      "G",
      "ir"
    ],
    [
      "Gir",
      "l"
    ],
    [
      "P",
      "ear"
    ],
    [
      "Pear",
      "l"
    ],
    [
      "E",
      "arr"
    ],
    [
      "Mari",
      "e"
    ],
    [
      "Dar",
      "win"
    ],
    [
      "inde",
      "pend"
    ],
    [
      "independ",
      "ent"
    ],
    [
      "st",
      "ap"
    ],
    [
      "an",
      "a"
    ],
    [
      "R",
      "A"
    ],
    [
      "RA",
      "M"
    ],
    [
      "oper",
      "ating"
    ],
    [
      "sto",
      "red"
    ],
    [
      "pre",
      "vi"
    ],
    [
      "evidence",
      ","
    ],
    [
      "pri",
      "vac"
    ],
    [
      "fact",
      "or"
    ],
    [
      "rou",
      "te"
    ],
    [
      "char",
      "ger"
    ],
    [
      "k",
      "y"
    ],
    [
      "j",
      "et"
    ],
    [
      "um",
      "ents"
    ],
    [
      "e",
      "asy"
    ],
    [
      "sho",
      "es,"
    ],
    [
      "m",
      "im"
    ],
    [
      "p",
      "od"
    ],
    [
      "diffic",
      "ult"
    ],
    [
      "fe",
      "ar"
    ],
    [
      "mist",
      "ak"
    ],
    [
      "os",
      "en"
    ],
    [
      "hydr",
      "ated"
    ],
    [
      "D",
      "rink"
    ],
    [
      "format",
      "t"
    ],
    [
      "R",
      "E"
    ],
    [
      "M",
      "E"
    ],
    [
      "tim",
      "es,"
    ],
    [
      "emplo",
      "y"
    ],
    [
      "near",
      "ly"
    ],
    [
      "moon",
      "?"
    ],
    [
      "cl",
      "ust"
    ],
    [
      "D",
      "ark"
    ],
    [
      "i",
      "ous"
    ],
    [
      "other",
      "s."
    ],
    [
      "boundari",
      "es"
    ],
    [
      "St",
      "ate"
    ],
    [
      "resi",
      "li"
    ],
    [
      "resili",
      "ence?"
    ],
    [
      "setback",
      "s,"
    ],
    [
      "P",
      "ack"
    ],
    [
      "p",
      "il"
    ],
    [
      "m",
      "ust"
    ],
    [
      "buf",
      "fer"
    ],
    [
      "B",
      "aking"
    ],
    [
      "on",
      "ions"
    ],
    [
      "thorough",
      "ly,"
    ],
    [
      "heat",
      "."
    ],
    [
      "ino",
      "a"
    ],
    [
      "fol",
      "der"
    ],
    [
      "prior",
      "ities"
    ],
    [
      "summ",
      "ary"
    ],
    [
      "statement",
      "?"
    ],
    [
      "brain",
      "storm"
    ],
    [
      "im",
      "medi"
    ],
    [
      "immedi",
      "ate"
    ],
    [
      "port",
      "fo"
    ],
    [
      "portfo",
      "li"
    ],
    [
      "portfoli",
      "o"
    ],
    [
      "document",
      "."
    ],
    [
      "acid",
      "s"
    ],
    [
      "bo",
      "hydr"
    ],
    [
      "qu",
      "arter"
    ],
    [
      "bi",
      "gger"
    ],
    [
      "form",
      ","
    ],
    [
      "her",
      "bs"
    ],
    [
      "in",
      "door"
    ],
    [
      "b",
      "right"
    ],
    [
      "sk",
      "y."
    ],
    [
      "no",
      "v"
    ],
    [
      "ess",
      "ay"
    ],
    [
      "ic",
      "ate"
    ],
    [
      "open",
      "ly,"
    ],
    [
      "other",
      "."
    ],
    [
      "leader",
      "ship"
    ],
    [
      "cell",
      "s."
    ],
    [
      "cel",
      "led"
    ],
    [
      "par",
      "as"
    ],
    [
      "bacteri",
      "a."
    ],
    [
      "ver",
      "b."
    ],
    [
      "person",
      ","
    ],
    [
      "loc",
      "ation,"
    ],
    [
      "ph",
      "rase"
    ],
    [
      "top",
      "ic"
    ],
    [
      "word",
      "s."
    ],
    [
      "par",
      "aphrase"
    ],
    [
      "origin",
      "al"
    ],
    [
      "analys",
      "is."
    ],
    [
      "clear",
      "ly"
    ],
    [
      "hold",
      "s"
    ],
    [
      "atom",
      "s"
    ],
    [
      "val",
      "ent"
    ],
    [
      "share",
      "d"
    ],
    [
      "acid",
      "ic"
    ],
    [
      "14",
      "."
    ],
    [
      "cat",
      "aly"
    ],
    [
      "en",
      "zy"
    ],
    [
      "B",
      "ig"
    ],
    [
      "ear",
      "ly"
    ],
    [
      "long",
      "er"
    ],
    [
      "wave",
      "length"
    ],
    [
      "le",
      "aving"
    ],
    [
      "mean",
      "?"
    ],
    [
      "5",
      "00"
    ],
    [
      "HTTP",
      "S"
    ],
    [
      "webs",
      "ite"
    ],
    [
      "inform",
      "ation."
    ],
    [
      "history",
      ","
    ],
    [
      "lin",
      "er"
    ],
    [
      "li",
      "br"
    ],
    [
      "id",
      "ent"
    ],
    [
      "s",
      "us"
    ],
    [
      "speci",
      "es?"
    ],
    [
      "che",
      "et"
    ],
    [
      "cheet",
      "ah"
    ],
    [
      "pe",
      "re"
    ],
    [
      "pere",
      "gr"
    ],
    [
      "peregr",
      "ine"
    ],
    [
      "f",
      "al"
    ],
    [
      "fal",
      "con"
    ],
    [
      "Mercur",
      "y"
    ],
    [
      "atmosphere",
      "."
    ],
    [
      "d",
      "war"
    ],
    [
      "dwar",
      "f"
    ],
    [
      "l",
      "es."
    ],
    [
      "y",
      "el"
    ],
    [
      "yel",
      "low"
    ],
    [
      "B",
      "lock"
    ],
    [
      "hab",
      "its"
    ],
    [
      "n",
      "ic"
    ],
    [
      "b",
      "or"
    ],
    [
      "for",
      "ward"
    ],
    [
      "an",
      "agra"
    ],
    [
      "ar",
      "."
    ],
    [
      "ca",
      "ke"
    ],
    [
      "t",
      "ong"
    ],
    [
      "twi",
      "st"
    ],
    [
      "quick",
      "ly"
    ],
    [
      "sound",
      "s."
    ],
    [
      "impro",
      "ving"
    ],
    [
      "al",
      "ou"
    ],
    [
      "spread",
      "she"
    ],
    [
      "stay",
      "s"
    ],
    [
      "app",
      "."
    ],
    [
      "automat",
      "ic"
    ],
    [
      "sn",
      "ow"
    ],
    [
      "rul",
      "es"
    ],
    [
      "friend",
      "?"
    ],
    [
      "tal",
      "k,"
    ],
    [
      "Sh",
      "ow"
    ],
    [
      "ser",
      "ve"
    ],
    [
      "cycl",
      "ing"
    ],
    [
      "dissolve",
      "d"
    ],
    [
      "de",
      "vi"
    ],
    [
      "A",
      "T"
    ],
    [
      "att",
      "ach"
    ],
    [
      "night",
      "?"
    ],
    [
      "b",
      "atch"
    ],
    [
      "T",
      "urn"
    ],
    [
      "care",
      "ful"
    ],
    [
      "re",
      "set"
    ],
    [
      "on",
      ","
    ],
    [
      "cut",
      "ting"
    ],
    [
      "bo",
      "ar"
    ],
    [
      "boar",
      "d."
    ],
    [
      "quick",
      "ly,"
    ],
    [
      "sh",
      "allow"
    ],
    [
      "ser",
      "ving"
    ],
    [
      "sugar",
      ","
    ],
    [
      "O",
      "ri"
    ],
    [
      "meteor",
      "ite"
    ],
    [
      "fl",
      "ash"
    ],
    [
      "u",
      "ation"
    ],
    [
      "sty",
      "le"
    ],
    [
      "valid",
      "ate"
    ],
    [
      "G",
      "et"
    ],
    [
      "block",
      "ing"
    ],
    [
      "con",
      "text"
    ],
    [
      "breath",
      "ing,"
    ],
    [
      "nervous",
      "ness"
    ],
    [
      "ines",
      "s."
    ],
    [
      "m",
      "app"
    ],
    [
      "user",
      "s."
    ],
    [
      "law",
      "?"
    ],
    [
      "ac",
      "ted"
    ],
    [
      "m",
      "ass"
    ],
    [
      "op",
      "pos"
    ],
    [
      "oppos",
      "ite"
    ],
    [
      "naturally",
      "?"
    ],
    [
      "ne",
      "uro"
    ],
    [
      "regul",
      "ate"
    ],
    [
      "ut",
      "ri"
    ],
    [
      "fat",
      "s,"
    ],
    [
      "miner",
      "als"
    ],
    [
      "decision",
      "s."
    ],
    [
      "concentr",
      "ation"
    ],
    [
      "new",
      "s"
    ],
    [
      "clo",
      "thes"
    ],
    [
      "able",
      "."
    ],
    [
      "w",
      "ings"
    ],
    [
      "mir",
      "ror"
    ],
    [
      "sche",
      "me"
    ],
    [
      "on",
      "om"
    ],
    [
      "listen",
      "ing,"
    ],
    [
      "exercise",
      "?"
    ],
    [
      "real",
      "istic"
    ],
    [
      "attract",
      "s"
    ],
    [
      "mind",
      "set?"
    ],
    [
      "ab",
      "il"
    ],
    [
      "effor",
      "t"
    ],
    [
      "E",
      "mbrace"
    ],
    [
      "per",
      "sist"
    ],
    [
      "C",
      "omb"
    ],
    [
      "Comb",
      "ine"
    ],
    [
      "ro",
      "asted"
    ],
    [
      "s",
      "lic"
    ],
    [
      "smooth",
      "ie"
    ],
    [
      "f",
      "rozen"
    ],
    [
      "gr",
      "an"
    ],
    [
      "se",
      "cure"
    ],
    [
      "ins",
      "ic"
    ],
    [
      "rout",
      "in"
    ],
    [
      "fu",
      "el"
    ],
    [
      "car",
      "b"
    ],
    [
      "um",
      "in"
    ],
    [
      "mile",
      "st"
    ],
    [
      "affirm",
      "ations."
    ],
    [
      "i",
      "os"
    ],
    [
      "others",
      "'"
    ],
    [
      "vi",
      "ol"
    ],
    [
      "id",
      "enti"
    ],
    [
      "co",
      "des"
    ],
    [
      "out",
      "com"
    ],
    [
      "outcom",
      "es,"
    ],
    [
      "fatig",
      "ue"
    ],
    [
      "S",
      "i"
    ],
    [
      "ch",
      "art"
    ],
    [
      "bo",
      "s"
    ],
    [
      "ag",
      "es"
    ],
    [
      "s",
      "in"
    ],
    [
      "happ",
      "en"
    ],
    [
      "result",
      "s,"
    ],
    [
      "botto",
      "m"
    ],
    [
      "re",
      "comm"
    ],
    [
      "recomm",
      "end"
    ],
    [
      "z",
      "es"
    ],
    [
      "respect",
      "ful"
    ],
    [
      "mem",
      "ory?"
    ],
    [
      "incre",
      "asing"
    ],
    [
      "v",
      "als"
    ],
    [
      "be",
      "e"
    ],
    [
      "on",
      "es,"
    ],
    [
      "ex",
      "act"
    ],
    [
      "Fahrenhe",
      "it"
    ],
    [
      "multip",
      "ly"
    ],
    [
      "old",
      ","
    ],
    [
      "100",
      "."
    ],
    [
      "princi",
      "pal"
    ],
    [
      "h",
      "ur"
    ],
    [
      "need",
      "s."
    ],
    [
      "g",
      "ather"
    ],
    [
      "to",
      "wel"
    ],
    [
      "re",
      "d."
    ],
    [
      "rom",
      "ise"
    ],
    [
      "p",
      "ick"
    ],
    [
      "ev",
      "ent"
    ],
    [
      "h",
      "ori"
    ],
    [
      "hori",
      "zon"
    ],
    [
      "them",
      "."
    ],
    [
      "an",
      "ces,"
    ],
    [
      "reach",
      "es"
    ],
    [
      "strate",
      "gi"
    ],
    [
      "add",
      "ress"
    ],
    [
      "g",
      "ap"
    ],
    [
      "equ",
      "i"
    ],
    [
      "slow",
      "ly,"
    ],
    [
      "r",
      "um"
    ],
    [
      "m",
      "ight"
    ],
    [
      "ST",
      "AR"
    ],
    [
      "th",
      "under"
    ],
    [
      "ne",
      "cess"
    ],
    [
      "necess",
      "ary"
    ],
    [
      "lo",
      "ose"
    ],
    [
      "column",
      "s"
    ],
    [
      "sh",
      "ake"
    ],
    [
      "foc",
      "us,"
    ],
    [
      "hy",
      "gi"
    ],
    [
      "hygi",
      "en"
    ],
    [
      "1",
      "):"
    ],
    [
      "reverse",
      "_"
    ],
    [
      "ei",
      "ou"
    ],
    [
      "(num",
      "s):"
    ],
    [
      "_",
      "to"
    ],
    [
      "[:",
      "]"
    ],
    [
      "a",
      "[j]"
    ],
    [
      "hi",
      ")"
    ],
    [
      "arr",
      "["
    ],
    [
      "seq",
      ":"
    ],
    [
      "re",
      "q"
    ],
    [
      "most",
      "_common"
    ],
    [
      "C",
      "D"
    ],
    [
      "gcd",
      "(a,"
    ],
    [
      "b",
      ":"
    ],
    [
      "lower",
      "())"
    ],
    [
      "(a",
      "[i]"
    ],
    [
      "_",
      "count"
    ],
    [
      "s.split",
      "()"
    ],
    [
      "pie",
      "ces."
    ],
    [
      "lst",
      "[i"
    ],
    [
      "i",
      "+"
    ],
    [
      "lst",
      "["
    ],
    [
      "integer",
      "."
    ],
    [
      "trans",
      "pose"
    ],
    [
      "integ",
      "ers"
    ],
    [
      "random.",
      "rand"
    ],
    [
      "random.rand",
      "int("
    ],
    [
      "oc",
      "curren"
    ],
    [
      "32",
      ")"
    ],
    [
      "(name",
      ")"
    ],
    [
      "parse",
      "_"
    ],
    [
      "json.load",
      "s"
    ],
    [
      "json.",
      "dump"
    ],
    [
      "[^",
      "a-z"
    ],
    [
      "[^a-z",
      "0"
    ],
    [
      "[^a-z0",
      "-9"
    ],
    [
      "s.",
      "strip"
    ],
    [
      "M",
      "M"
    ],
    [
      "_",
      "str"
    ],
    [
      "is",
      "of"
    ],
    [
      "isof",
      "or"
    ],
    [
      "isofor",
      "mat"
    ],
    [
      "time",
      "()"
    ],
    [
      "(",
      "k,"
    ],
    [
      "C",
      "a"
    ],
    [
      "eli",
      "f"
    ],
    [
      "(",
      "t"
    ],
    [
      "sp",
      "ac"
    ],
    [
      "normal",
      "ize"
    ],
    [
      "boo",
      "lean"
    ],
    [
      "x",
      ")"
    ],
    [
      "(",
      "width"
    ],
    [
      "(path",
      ")"
    ],
    [
      "os.path.",
      "is"
    ],
    [
      "os.path.is",
      "file"
    ],
    [
      "os.path.join",
      "(path,"
    ],
    [
      "+1",
      "))"
    ],
    [
      "snake",
      "_case"
    ],
    [
      "[",
      "1:"
    ],
    [
      "**",
      "2"
    ],
    [
      "allow",
      "ed"
    ],
    [
      "one",
      "-"
    ],
    [
      "default=",
      "None):"
    ],
    [
      "len(",
      "b)"
    ],
    [
      "(",
      "char"
    ],
    [
      "(char",
      "s)"
    ],
    [
      "_",
      "digits"
    ],
    [
      "list(",
      "set"
    ],
    [
      "x",
      "]"
    ],
    [
      "(n",
      "o"
    ],
    [
      "csv",
      "."
    ],
    [
      "pret",
      "ty"
    ],
    [
      "upper",
      "case"
    ],
    [
      "I",
      "SO"
    ],
    [
      "T",
      "y"
    ],
    [
      "Ty",
      "pe"
    ],
    [
      "0.",
      "0"
    ],
    [
      "elli",
      "ps"
    ],
    [
      "ellips",
      "is"
    ],
    [
      "bu",
      "il"
    ],
    [
      "(s",
      "um"
    ],
    [
      "pair",
      "s:"
    ],
    [
      "start",
      "s"
    ],
    [
      "key=",
      "lambda"
    ],
    [
      "ac",
      "card"
    ],
    [
      "heapq",
      "."
    ],
    [
      "deb",
      "oun"
    ],
    [
      "deboun",
      "ce"
    ],
    [
      "(",
      "args,"
    ],
    [
      "last",
      "["
    ],
    [
      "last[",
      "'t"
    ],
    [
      "last['t",
      "']"
    ],
    [
      "reverse",
      "d"
    ],
    [
      "rows",
      ":"
    ],
    [
      "dict",
      "s."
    ],
    [
      "is",
      "Pal"
    ],
    [
      "isPal",
      "indrome"
    ],
    [
      "to",
      "L"
    ],
    [
      "toL",
      "ower"
    ],
    [
      "toLower",
      "Case"
    ],
    [
      "arr.reduce(",
      "(a,b)=>"
    ],
    [
      "a+",
      "b,"
    ],
    [
      "Math.",
      "max("
    ],
    [
      "null",
      ";"
    ],
    [
      "arr.filter",
      "(x=>"
    ],
    [
      "if(n",
      "<"
    ],
    [
      "true",
      ";"
    ],
    [
      "i=",
      "2"
    ],
    [
      "i=2",
      ";i<="
    ],
    [
      "i",
      ";"
    ],
    [
      "=0",
      ","
    ],
    [
      "re",
      "s."
    ],
    [
      "[",
      "a,b"
    ],
    [
      "]",
      "=["
    ],
    [
      "Time",
      "out"
    ],
    [
      ")=>",
      "{"
    ],
    [
      "(",
      "url"
    ],
    [
      "(b",
      ");"
    ],
    [
      "N",
      "O"
    ],
    [
      "U",
      "V"
    ],
    [
      "12",
      "3"
    ],
    [
      "Array.",
      "from"
    ],
    [
      "Math.",
      "floor(Math.random()"
    ],
    [
      ").",
      "join('');"
    ],
    [
      "(k",
      "))"
    ],
    [
      "arr.length",
      ")"
    ],
    [
      "=[",
      "...arr"
    ],
    [
      "].sort",
      "("
    ],
    [
      "b",
      ");"
    ],
    [
      "map",
      "(("
    ],
    [
      ",",
      "v"
    ],
    [
      "(v",
      ")"
    ],
    [
      ",",
      "i)=>"
    ],
    [
      "=Math.",
      "floor"
    ],
    [
      "A",
      ","
    ],
    [
      "i=",
      "1"
    ],
    [
      "B",
      "','"
    ],
    [
      ".",
      "length"
    ],
    [
      "i++",
      ";"
    ],
    [
      "g",
      "="
    ],
    [
      "escap",
      "e"
    ],
    [
      "qu",
      "ot"
    ],
    [
      "obj",
      ")"
    ],
    [
      "om",
      "it"
    ],
    [
      "[c",
      "]"
    ],
    [
      "padding",
      ":"
    ],
    [
      "c",
      ";"
    ],
    [
      "8",
      "px"
    ],
    [
      "display",
      ":"
    ],
    [
      "</li",
      "><li>"
    ],
    [
      "background",
      ":#"
    ],
    [
      "3",
      ";"
    ],
    [
      "des",
      "cending."
    ],
    [
      "-",
      "0"
    ],
    [
      "-0",
      "1"
    ],
    [
      "UP",
      "DATE"
    ],
    [
      "AV",
      "G"
    ],
    [
      "contain",
      "ing"
    ],
    [
      "d",
      "f"
    ],
    [
      "while",
      "(i"
    ],
    [
      "[0",
      "];"
    ],
    [
      "m",
      ";"
    ],
    [
      "if(n%2==",
      "0)"
    ],
    [
      "int",
      "s."
    ],
    [
      "==",
      "0"
    ],
    [
      "bo",
      "ol"
    ],
    [
      "Ru",
      "by"
    ],
    [
      "col",
      "lect"
    ],
    [
      "P",
      "H"
    ],
    [
      "PH",
      "P"
    ],
    [
      "Hello",
      "."
    ],
    [
      "<",
      "?"
    ],
    [
      "<?",
      "ph"
    ],
    [
      "<?ph",
      "p"
    ],
    [
      "?",
      ">"
    ],
    [
      "B",
      "o"
    ],
    [
      "'",
      "))"
    ],
    [
      "()",
      ")."
    ],
    [
      "('",
      "Hello"
    ],
    [
      "')",
      ");"
    ],
    [
      "D",
      "I"
    ],
    [
      "DI",
      "ST"
    ],
    [
      "DIST",
      "IN"
    ],
    [
      "DISTIN",
      "CT"
    ],
    [
      "m",
      "k"
    ],
    [
      "mk",
      "dir"
    ],
    [
      "F",
      "l"
    ],
    [
      "==",
      "'"
    ],
    [
      "G",
      "ET"
    ],
    [
      "con",
      "struct"
    ],
    [
      "x",
      "-"
    ],
    [
      ");",
      "}"
    ],
    [
      "gener",
      "ator"
    ],
    [
      "ret",
      "ry"
    ],
    [
      "click",
      "."
    ],
    [
      "E",
      "lement"
    ],
    [
      "(a,",
      "b):"
    ],
    [
      "n",
      "="
    ],
    [
      "<",
      "=0"
    ],
    [
      "hi",
      ">"
    ],
    [
      "hi>",
[...]
